const unsigned char trained_tflite[] = {
  0x1c, 0x00, 0x00, 0x00, 0x54, 0x46, 0x4c, 0x33, 0x00, 0x00, 0x12, 0x00,
  0x1c, 0x00, 0x04, 0x00, 0x08, 0x00, 0x0c, 0x00, 0x10, 0x00, 0x14, 0x00,
  0x00, 0x00, 0x18, 0x00, 0x12, 0x00, 0x00, 0x00, 0x03, 0x00, 0x00, 0x00,
  0xe4, 0x2f, 0x00, 0x00, 0x14, 0x15, 0x00, 0x00, 0xfc, 0x14, 0x00, 0x00,
  0x3c, 0x00, 0x00, 0x00, 0x04, 0x00, 0x00, 0x00, 0x01, 0x00, 0x00, 0x00,
  0x0c, 0x00, 0x00, 0x00, 0x08, 0x00, 0x0c, 0x00, 0x04, 0x00, 0x08, 0x00,
  0x08, 0x00, 0x00, 0x00, 0x08, 0x00, 0x00, 0x00, 0x20, 0x00, 0x00, 0x00,
  0x13, 0x00, 0x00, 0x00, 0x6d, 0x69, 0x6e, 0x5f, 0x72, 0x75, 0x6e, 0x74,
  0x69, 0x6d, 0x65, 0x5f, 0x76, 0x65, 0x72, 0x73, 0x69, 0x6f, 0x6e, 0x00,
  0x21, 0x00, 0x00, 0x00, 0xac, 0x14, 0x00, 0x00, 0x98, 0x14, 0x00, 0x00,
  0x7c, 0x14, 0x00, 0x00, 0x58, 0x14, 0x00, 0x00, 0x34, 0x14, 0x00, 0x00,
  0x10, 0x14, 0x00, 0x00, 0x7c, 0x0a, 0x00, 0x00, 0x48, 0x0a, 0x00, 0x00,
  0x14, 0x04, 0x00, 0x00, 0xc0, 0x03, 0x00, 0x00, 0x2c, 0x02, 0x00, 0x00,
  0x08, 0x02, 0x00, 0x00, 0xe4, 0x01, 0x00, 0x00, 0xc0, 0x01, 0x00, 0x00,
  0x9c, 0x01, 0x00, 0x00, 0x78, 0x01, 0x00, 0x00, 0x54, 0x01, 0x00, 0x00,
  0x48, 0x01, 0x00, 0x00, 0x34, 0x01, 0x00, 0x00, 0x20, 0x01, 0x00, 0x00,
  0x0c, 0x01, 0x00, 0x00, 0xf8, 0x00, 0x00, 0x00, 0xe4, 0x00, 0x00, 0x00,
  0xd0, 0x00, 0x00, 0x00, 0xbc, 0x00, 0x00, 0x00, 0xa8, 0x00, 0x00, 0x00,
  0x94, 0x00, 0x00, 0x00, 0x80, 0x00, 0x00, 0x00, 0x6c, 0x00, 0x00, 0x00,
  0x58, 0x00, 0x00, 0x00, 0x44, 0x00, 0x00, 0x00, 0x30, 0x00, 0x00, 0x00,
  0x04, 0x00, 0x00, 0x00, 0x22, 0xeb, 0xff, 0xff, 0x04, 0x00, 0x00, 0x00,
  0x10, 0x00, 0x00, 0x00, 0x31, 0x2e, 0x35, 0x2e, 0x30, 0x00, 0x00, 0x00,
  0x00, 0x00, 0x00, 0x00, 0x00, 0x00, 0x00, 0x00, 0x00, 0x00, 0x00, 0x00,
  0x00, 0x00, 0x00, 0x00, 0x00, 0x00, 0x00, 0x00, 0x00, 0xd2, 0xff, 0xff,
  0x00, 0x00, 0x00, 0x00, 0x00, 0x00, 0x00, 0x00, 0x00, 0x00, 0x00, 0x00,
  0x10, 0xd2, 0xff, 0xff, 0x00, 0x00, 0x00, 0x00, 0x00, 0x00, 0x00, 0x00,
  0x00, 0x00, 0x00, 0x00, 0x20, 0xd2, 0xff, 0xff, 0x00, 0x00, 0x00, 0x00,
  0x00, 0x00, 0x00, 0x00, 0x00, 0x00, 0x00, 0x00, 0x30, 0xd2, 0xff, 0xff,
  0x00, 0x00, 0x00, 0x00, 0x00, 0x00, 0x00, 0x00, 0x00, 0x00, 0x00, 0x00,
  0x40, 0xd2, 0xff, 0xff, 0x00, 0x00, 0x00, 0x00, 0x00, 0x00, 0x00, 0x00,
  0x00, 0x00, 0x00, 0x00, 0x50, 0xd2, 0xff, 0xff, 0x00, 0x00, 0x00, 0x00,
  0x00, 0x00, 0x00, 0x00, 0x00, 0x00, 0x00, 0x00, 0x60, 0xd2, 0xff, 0xff,
  0x00, 0x00, 0x00, 0x00, 0x00, 0x00, 0x00, 0x00, 0x00, 0x00, 0x00, 0x00,
  0x70, 0xd2, 0xff, 0xff, 0x00, 0x00, 0x00, 0x00, 0x00, 0x00, 0x00, 0x00,
  0x00, 0x00, 0x00, 0x00, 0x80, 0xd2, 0xff, 0xff, 0x00, 0x00, 0x00, 0x00,
  0x00, 0x00, 0x00, 0x00, 0x00, 0x00, 0x00, 0x00, 0x90, 0xd2, 0xff, 0xff,
  0x00, 0x00, 0x00, 0x00, 0x00, 0x00, 0x00, 0x00, 0x00, 0x00, 0x00, 0x00,
  0xa0, 0xd2, 0xff, 0xff, 0x00, 0x00, 0x00, 0x00, 0x00, 0x00, 0x00, 0x00,
  0x00, 0x00, 0x00, 0x00, 0xb0, 0xd2, 0xff, 0xff, 0x00, 0x00, 0x00, 0x00,
  0x00, 0x00, 0x00, 0x00, 0x00, 0x00, 0x00, 0x00, 0xc0, 0xd2, 0xff, 0xff,
  0x00, 0x00, 0x00, 0x00, 0x00, 0x00, 0x00, 0x00, 0x00, 0x00, 0x00, 0x00,
  0xd0, 0xd2, 0xff, 0xff, 0x00, 0x00, 0x00, 0x00, 0x00, 0x00, 0x00, 0x00,
  0x00, 0x00, 0x00, 0x00, 0xe0, 0xd2, 0xff, 0xff, 0x00, 0x00, 0x00, 0x00,
  0x32, 0xec, 0xff, 0xff, 0x04, 0x00, 0x00, 0x00, 0x10, 0x00, 0x00, 0x00,
  0x01, 0x00, 0x00, 0x00, 0x4b, 0x00, 0x00, 0x00, 0x01, 0x00, 0x00, 0x00,
  0x10, 0x00, 0x00, 0x00, 0x00, 0x00, 0x00, 0x00, 0x52, 0xec, 0xff, 0xff,
  0x04, 0x00, 0x00, 0x00, 0x0c, 0x00, 0x00, 0x00, 0x01, 0x00, 0x00, 0x00,
  0x4b, 0x00, 0x00, 0x00, 0x10, 0x00, 0x00, 0x00, 0x00, 0x00, 0x00, 0x00,
  0x00, 0x00, 0x00, 0x00, 0x72, 0xec, 0xff, 0xff, 0x04, 0x00, 0x00, 0x00,
  0x10, 0x00, 0x00, 0x00, 0x01, 0x00, 0x00, 0x00, 0x01, 0x00, 0x00, 0x00,
  0x4b, 0x00, 0x00, 0x00, 0x08, 0x00, 0x00, 0x00, 0x00, 0x00, 0x00, 0x00,
  0x92, 0xec, 0xff, 0xff, 0x04, 0x00, 0x00, 0x00, 0x10, 0x00, 0x00, 0x00,
  0x01, 0x00, 0x00, 0x00, 0x95, 0x00, 0x00, 0x00, 0x01, 0x00, 0x00, 0x00,
  0x08, 0x00, 0x00, 0x00, 0x00, 0x00, 0x00, 0x00, 0xb2, 0xec, 0xff, 0xff,
  0x04, 0x00, 0x00, 0x00, 0x0c, 0x00, 0x00, 0x00, 0x01, 0x00, 0x00, 0x00,
  0x95, 0x00, 0x00, 0x00, 0x08, 0x00, 0x00, 0x00, 0x00, 0x00, 0x00, 0x00,
  0x00, 0x00, 0x00, 0x00, 0xd2, 0xec, 0xff, 0xff, 0x04, 0x00, 0x00, 0x00,
  0x10, 0x00, 0x00, 0x00, 0x01, 0x00, 0x00, 0x00, 0x01, 0x00, 0x00, 0x00,
  0x95, 0x00, 0x00, 0x00, 0x41, 0x00, 0x00, 0x00, 0x00, 0x00, 0x00, 0x00,
  0xf2, 0xec, 0xff, 0xff, 0x04, 0x00, 0x00, 0x00, 0x80, 0x01, 0x00, 0x00,
  0x1b, 0x2f, 0xb2, 0x71, 0xf1, 0xe9, 0x0c, 0xe9, 0x76, 0x48, 0xc2, 0x42,
  0xe9, 0xe9, 0x3e, 0xd6, 0x38, 0xef, 0x7f, 0x4b, 0x1d, 0x33, 0x64, 0x0a,
  0xbb, 0xea, 0xe2, 0xcc, 0x2d, 0xf4, 0x81, 0x5d, 0xdc, 0xf2, 0x17, 0xfd,
  0xed, 0x26, 0x35, 0xf9, 0xc7, 0xd9, 0x04, 0x0a, 0x5e, 0x01, 0x8e, 0x78,
  0x81, 0xd7, 0xa8, 0xcc, 0x34, 0x4f, 0xc9, 0x01, 0xea, 0xb8, 0xd3, 0x19,
  0x42, 0xfd, 0xc6, 0x72, 0xab, 0x92, 0xc8, 0xba, 0x38, 0x32, 0xea, 0x49,
  0x06, 0x3b, 0xcc, 0x37, 0x22, 0x7b, 0xf7, 0x64, 0xfe, 0x1a, 0xe5, 0x65,
  0x45, 0x7f, 0x06, 0x27, 0x23, 0xff, 0xc8, 0x3a, 0xfe, 0x64, 0xf4, 0x0f,
  0xc9, 0xbe, 0x14, 0xe4, 0x3a, 0xf7, 0x96, 0x7c, 0xbc, 0xd3, 0x0e, 0xec,
  0x02, 0xf9, 0xf3, 0x42, 0xd5, 0x85, 0x34, 0x03, 0x17, 0x34, 0xc4, 0x7f,
  0x37, 0x0e, 0xad, 0x34, 0x67, 0x6c, 0xf3, 0x7f, 0xf5, 0xea, 0xbd, 0x42,
  0x51, 0x77, 0xeb, 0x1d, 0x13, 0x2d, 0xbc, 0x23, 0x41, 0x38, 0xd7, 0x4a,
  0x4f, 0x46, 0xc5, 0x73, 0x21, 0x5e, 0xec, 0x35, 0x20, 0x2e, 0xde, 0x14,
  0x20, 0x7f, 0xe2, 0xd9, 0x15, 0x6f, 0xab, 0x22, 0x1e, 0x1d, 0xdc, 0xf0,
  0xad, 0xa4, 0x19, 0xe9, 0x1c, 0x4b, 0xc7, 0x6e, 0xe5, 0xa1, 0xfb, 0x07,
  0x59, 0x40, 0x33, 0xea, 0x93, 0x93, 0xe8, 0xfd, 0x40, 0x26, 0xb8, 0x7f,
  0x92, 0x97, 0x25, 0xe0, 0x10, 0x12, 0xd7, 0x47, 0xc3, 0xaa, 0xe8, 0x07,
  0x28, 0x23, 0xff, 0x24, 0xab, 0x81, 0x2b, 0xd3, 0x13, 0x09, 0xf4, 0x29,
  0xa5, 0x81, 0x17, 0xdd, 0x34, 0x29, 0xa6, 0x2b, 0xd1, 0xdd, 0x26, 0xcd,
  0x1a, 0x24, 0xff, 0xfe, 0x98, 0x98, 0x2a, 0xe0, 0x26, 0x0a, 0xe6, 0x37,
  0x0f, 0x03, 0x49, 0xd1, 0xfd, 0xa3, 0x2f, 0xf3, 0x3c, 0x07, 0x4d, 0xe1,
  0x3b, 0xd5, 0x7c, 0xe0, 0x0b, 0xfd, 0x57, 0xa2, 0x02, 0xc6, 0x7f, 0xf2,
  0x39, 0xd6, 0x46, 0x5b, 0xdb, 0x9b, 0x7c, 0x45, 0x23, 0x70, 0x26, 0x04,
  0xa0, 0xee, 0x2b, 0x41, 0x44, 0x33, 0xba, 0x67, 0x2f, 0x98, 0x7f, 0x24,
  0xf7, 0xdf, 0xa6, 0xf0, 0x3b, 0x45, 0xe1, 0xfd, 0xd8, 0xc6, 0x22, 0xef,
  0x59, 0xf6, 0x26, 0x5e, 0xc5, 0xd4, 0xe4, 0xd6, 0x2b, 0x37, 0xe3, 0x7f,
  0xf8, 0xf0, 0x4e, 0xd7, 0xf4, 0x8c, 0x4c, 0xd1, 0xe3, 0xdd, 0x70, 0xc0,
  0x52, 0xab, 0x10, 0xf9, 0xf4, 0xdb, 0x58, 0xde, 0x22, 0xc2, 0x7f, 0xee,
  0x44, 0x60, 0x06, 0x5a, 0xcb, 0x63, 0xc2, 0xb4, 0x49, 0x74, 0x98, 0x48,
  0x29, 0x29, 0xd3, 0xd0, 0x12, 0x7f, 0x7f, 0x01, 0xfb, 0x33, 0x10, 0xe2,
  0x7f, 0x71, 0xd0, 0x7a, 0xf0, 0xfc, 0xc1, 0xf7, 0x29, 0x71, 0xe6, 0x09,
  0x4e, 0x67, 0x16, 0xfe, 0x71, 0x1f, 0xf8, 0x06, 0x05, 0x4c, 0xc2, 0x31,
  0x00, 0x00, 0x00, 0x00, 0x82, 0xee, 0xff, 0xff, 0x04, 0x00, 0x00, 0x00,
  0x40, 0x00, 0x00, 0x00, 0x00, 0x00, 0x00, 0x00, 0x00, 0x00, 0x00, 0x00,
  0x00, 0x00, 0x00, 0x00, 0x00, 0x00, 0x00, 0x00, 0x00, 0x00, 0x00, 0x00,
  0x00, 0x00, 0x00, 0x00, 0x00, 0x00, 0x00, 0x00, 0x00, 0x00, 0x00, 0x00,
  0x00, 0x00, 0x00, 0x00, 0x00, 0x00, 0x00, 0x00, 0x00, 0x00, 0x00, 0x00,
  0x00, 0x00, 0x00, 0x00, 0x00, 0x00, 0x00, 0x00, 0x00, 0x00, 0x00, 0x00,
  0x00, 0x00, 0x00, 0x00, 0x00, 0x00, 0x00, 0x00, 0x00, 0x00, 0x00, 0x00,
  0xd2, 0xee, 0xff, 0xff, 0x04, 0x00, 0x00, 0x00, 0x18, 0x06, 0x00, 0x00,
  0xbd, 0xe1, 0xdb, 0x0e, 0x4b, 0xe6, 0x2d, 0x0a, 0x2e, 0x1f, 0x17, 0x23,
  0x06, 0x28, 0x16, 0xf9, 0x31, 0x33, 0x29, 0x03, 0xe1, 0xe7, 0xd8, 0xdd,
  0xe1, 0xe0, 0xbb, 0xcc, 0xca, 0xc6, 0xc3, 0xcc, 0xbc, 0xc8, 0xe1, 0xbf,
  0xa2, 0xa2, 0xad, 0x92, 0xa5, 0x96, 0xb5, 0x92, 0x97, 0xb4, 0xb8, 0x9f,
  0xb4, 0xb1, 0xc8, 0xbb, 0xb8, 0xba, 0xc0, 0xd9, 0xc2, 0xb6, 0xcb, 0xc3,
  0xb7, 0xbb, 0xd5, 0xb1, 0xcd, 0xc0, 0xe0, 0xe4, 0x0b, 0x46, 0xea, 0x38,
  0x13, 0x2c, 0x1f, 0x10, 0x11, 0x00, 0x0c, 0x19, 0x14, 0x29, 0x3a, 0x42,
  0x1e, 0xfb, 0xfc, 0xe9, 0xd4, 0xca, 0xca, 0xcc, 0xcf, 0xd9, 0xda, 0xdc,
  0xbd, 0xca, 0xc4, 0xda, 0xd4, 0xca, 0xb5, 0xa1, 0xa8, 0xae, 0x81, 0x99,
  0x8c, 0xb9, 0x98, 0xac, 0xbc, 0xb9, 0xb8, 0xc1, 0xce, 0xd1, 0xd6, 0xc1,
  0xc2, 0xb5, 0xe2, 0xc9, 0xd7, 0xc7, 0xc3, 0xdd, 0xb4, 0xcb, 0xe3, 0x0c,
  0xf2, 0xfc, 0x34, 0xf1, 0x27, 0x03, 0x1d, 0x38, 0x24, 0x10, 0x04, 0x10,
  0x25, 0x17, 0x47, 0x3d, 0x46, 0x2a, 0x0c, 0xf7, 0xe6, 0xf2, 0xd6, 0xd5,
  0xd3, 0xda, 0xce, 0xe2, 0xdc, 0xee, 0xd4, 0xd7, 0xdb, 0xcf, 0xb7, 0xba,
  0xa4, 0xc3, 0x9b, 0x93, 0xa9, 0x8a, 0x89, 0xc8, 0xc1, 0xb5, 0xc8, 0xad,
  0xcd, 0xd0, 0xd9, 0xcf, 0xd3, 0xcc, 0xc5, 0xe0, 0xe4, 0xdc, 0xe1, 0xdc,
  0xef, 0xd5, 0xdb, 0xc5, 0x0a, 0xe6, 0xfd, 0x65, 0xe6, 0x45, 0xe2, 0x38,
  0x4f, 0x3b, 0x10, 0x30, 0x32, 0x2a, 0x30, 0x65, 0x76, 0x60, 0x1a, 0xe4,
  0xf2, 0xc7, 0xca, 0xe3, 0xe8, 0xda, 0xd4, 0xc5, 0xf4, 0xe4, 0xce, 0xdc,
  0xc7, 0xc8, 0xaa, 0xbf, 0xad, 0xb2, 0xb2, 0x94, 0xaf, 0xc2, 0xc7, 0x9e,
  0xd9, 0xd9, 0xb5, 0xcf, 0xca, 0xc4, 0xd6, 0xaa, 0xb6, 0xc8, 0xc2, 0xdb,
  0xd3, 0xc5, 0xc6, 0xda, 0xd6, 0xea, 0xd4, 0xea, 0xd3, 0x17, 0xe1, 0xf6,
  0x64, 0xd4, 0x41, 0x18, 0x49, 0x3c, 0x51, 0x1a, 0x31, 0x4f, 0x53, 0x1a,
  0x69, 0x61, 0x7f, 0x40, 0xfb, 0x04, 0xeb, 0x02, 0xf9, 0xe2, 0xea, 0x07,
  0xf0, 0xeb, 0x01, 0xf8, 0xe0, 0xda, 0xcd, 0xcd, 0xc2, 0xb1, 0xd5, 0xc1,
  0xbc, 0xc9, 0xbc, 0xe4, 0xd5, 0xc4, 0xe8, 0xe2, 0xe4, 0xd7, 0xe8, 0xe3,
  0xf7, 0xf9, 0xe3, 0xe2, 0xd7, 0xe1, 0xdd, 0x04, 0xf0, 0xed, 0xdf, 0xdd,
  0xde, 0xa7, 0x1a, 0xe5, 0xf9, 0x59, 0x00, 0x5a, 0x24, 0x4c, 0x4e, 0x25,
  0x27, 0x2f, 0x29, 0x59, 0x28, 0x7a, 0x7e, 0x6f, 0x25, 0x34, 0xf9, 0x13,
  0xff, 0xf0, 0xe4, 0x06, 0x0a, 0xea, 0xf7, 0xf9, 0x13, 0x10, 0xef, 0xf6,
  0xe9, 0xeb, 0xc7, 0xd2, 0xd8, 0xc3, 0xca, 0xea, 0xc0, 0xce, 0xc5, 0xd3,
  0xec, 0xc5, 0xb6, 0xda, 0xcb, 0xbe, 0xc8, 0xec, 0xfd, 0xf9, 0xfd, 0xd6,
  0xd6, 0xdb, 0xfc, 0xd9, 0x02, 0xee, 0x2d, 0x01, 0xe8, 0x03, 0xc3, 0xbb,
  0xca, 0xe1, 0xdf, 0xe3, 0xec, 0x16, 0x05, 0x04, 0x03, 0xef, 0x27, 0x2e,
  0x13, 0x2b, 0x15, 0x2a, 0x2e, 0x4d, 0x3f, 0x3a, 0x47, 0x24, 0x36, 0x26,
  0x24, 0x43, 0x49, 0x35, 0x53, 0x66, 0x5e, 0x65, 0x76, 0x5f, 0x59, 0x59,
  0x53, 0x6a, 0x50, 0x73, 0x5c, 0x55, 0x59, 0x60, 0x5c, 0x4f, 0x62, 0x5f,
  0x59, 0x3a, 0x5b, 0x4d, 0x49, 0x58, 0x4e, 0x58, 0x4d, 0x5b, 0x4d, 0x2e,
  0xfa, 0x1a, 0xec, 0xe1, 0xd3, 0xf0, 0xda, 0xe7, 0xee, 0xde, 0x0e, 0x02,
  0xf7, 0xfd, 0xee, 0x02, 0x43, 0x03, 0x13, 0x08, 0x37, 0x1f, 0x29, 0x18,
  0x26, 0x1d, 0x32, 0x3b, 0x24, 0x28, 0x1c, 0x48, 0x3f, 0x3e, 0x63, 0x4c,
  0x58, 0x67, 0x4c, 0x54, 0x63, 0x57, 0x46, 0x47, 0x4f, 0x66, 0x66, 0x54,
  0x5e, 0x6a, 0x4a, 0x3f, 0x62, 0x2e, 0x5a, 0x39, 0x48, 0x4d, 0x49, 0x55,
  0x60, 0x4c, 0x4d, 0x41, 0x4a, 0x05, 0xe0, 0xde, 0xe8, 0xe3, 0xf1, 0xe2,
  0xfb, 0xe6, 0xfa, 0xff, 0x08, 0x08, 0x09, 0x0d, 0x01, 0x02, 0x1b, 0x30,
  0x34, 0x18, 0x29, 0x3c, 0x42, 0x34, 0x49, 0x42, 0x38, 0x22, 0x47, 0x35,
  0x49, 0x37, 0x54, 0x49, 0x7a, 0x58, 0x58, 0x7f, 0x6f, 0x46, 0x49, 0x55,
  0x3a, 0x5e, 0x51, 0x6e, 0x69, 0x64, 0x51, 0x4c, 0x4c, 0x60, 0x4e, 0x3c,
  0x4c, 0x63, 0x4e, 0x4e, 0x3b, 0x49, 0x3f, 0x56, 0x42, 0xb7, 0x15, 0xf5,
  0x2d, 0x7b, 0xf6, 0x44, 0x24, 0x44, 0x56, 0x51, 0x3b, 0x32, 0x49, 0x51,
  0x1b, 0x7a, 0x67, 0x50, 0x25, 0x15, 0x1a, 0x15, 0xf2, 0x0b, 0x0b, 0xef,
  0xf5, 0xe9, 0x1a, 0x0d, 0x06, 0xf9, 0xeb, 0xf9, 0xeb, 0xe4, 0x0b, 0xdf,
  0xd7, 0xd9, 0xf2, 0x0b, 0xf0, 0xfa, 0x07, 0x06, 0x04, 0xe3, 0x04, 0xdf,
  0x01, 0xf2, 0xe9, 0xf1, 0x12, 0xfc, 0x08, 0xf9, 0xe7, 0xfd, 0x06, 0x12,
  0xe5, 0xf6, 0xf4, 0xe0, 0xfc, 0x23, 0x6c, 0x10, 0x2a, 0x02, 0x57, 0x4d,
  0x39, 0x20, 0x07, 0x44, 0x28, 0x27, 0x5c, 0x7f, 0x52, 0x38, 0x07, 0x14,
  0x08, 0x01, 0xeb, 0xf9, 0x0f, 0x00, 0xf2, 0x10, 0xeb, 0x07, 0x0e, 0xf4,
  0xfd, 0xea, 0xd8, 0xcc, 0xcd, 0xd6, 0xd2, 0xbe, 0x05, 0xe8, 0xe4, 0xe9,
  0xd7, 0xda, 0xfb, 0xf2, 0x02, 0xd8, 0xeb, 0x0b, 0x0f, 0xff, 0xf0, 0xed,
  0xf0, 0x0c, 0x15, 0xf6, 0x0a, 0xf7, 0x0a, 0xbb, 0x33, 0xf7, 0x2a, 0x71,
  0x03, 0x54, 0x16, 0x4a, 0x55, 0x49, 0x57, 0x4b, 0x54, 0x3d, 0x4b, 0x5e,
  0x73, 0x60, 0x28, 0x0b, 0x10, 0x13, 0x1c, 0xfc, 0x0a, 0x16, 0x14, 0x17,
  0x16, 0x06, 0x1f, 0x01, 0x0a, 0x02, 0xeb, 0x01, 0x05, 0xe5, 0xdb, 0xd0,
  0xf7, 0x1a, 0x03, 0xd8, 0x11, 0xf3, 0x15, 0x14, 0xec, 0x0a, 0x00, 0x06,
  0x1c, 0xf4, 0x0a, 0xfd, 0xf6, 0x0b, 0x17, 0xf4, 0xfb, 0x20, 0x0d, 0x0b,
  0xf0, 0xfd, 0x23, 0x0a, 0xf4, 0x02, 0xf5, 0x03, 0xe8, 0xed, 0xe9, 0x01,
  0xf6, 0xee, 0xe5, 0xdd, 0xeb, 0xe3, 0xd3, 0xe1, 0xf6, 0x06, 0x15, 0x0e,
  0x22, 0x27, 0x22, 0x16, 0x34, 0x17, 0x21, 0x19, 0x44, 0x25, 0x27, 0x37,
  0x54, 0x61, 0x52, 0x55, 0x57, 0x67, 0x5a, 0x6c, 0x69, 0x5b, 0x4a, 0x42,
  0x4c, 0x43, 0x48, 0x36, 0x36, 0x42, 0x2b, 0x2c, 0x40, 0x29, 0x25, 0x48,
  0x30, 0x2b, 0x30, 0x47, 0x40, 0x10, 0x19, 0x2c, 0x0c, 0xec, 0x1d, 0xfb,
  0x02, 0xf6, 0x00, 0xf4, 0x08, 0xf6, 0xfc, 0xf5, 0xef, 0xf1, 0xfd, 0xed,
  0x12, 0x10, 0x1a, 0x28, 0x3c, 0x47, 0x51, 0x3a, 0x44, 0x43, 0x38, 0x37,
  0x30, 0x42, 0x4c, 0x57, 0x5a, 0x57, 0x70, 0x56, 0x75, 0x67, 0x76, 0x7e,
  0x7f, 0x5a, 0x57, 0x5e, 0x6b, 0x60, 0x5e, 0x61, 0x56, 0x4e, 0x4b, 0x59,
  0x4b, 0x48, 0x52, 0x5f, 0x52, 0x58, 0x48, 0x5b, 0x46, 0x59, 0xe5, 0x13,
  0x34, 0x04, 0xed, 0x11, 0xfe, 0x04, 0xf2, 0xf2, 0xf7, 0x04, 0xf5, 0xf8,
  0xe9, 0xf2, 0xf7, 0xef, 0xe6, 0xe9, 0xf9, 0x08, 0x19, 0x28, 0x23, 0x22,
  0x2b, 0x1f, 0x42, 0x3d, 0x2d, 0x2c, 0x2d, 0x3b, 0x31, 0x4f, 0x59, 0x60,
  0x60, 0x5d, 0x5c, 0x71, 0x51, 0x62, 0x75, 0x56, 0x51, 0x44, 0x44, 0x3e,
  0x47, 0x42, 0x43, 0x5b, 0x2f, 0x37, 0x32, 0x44, 0x3c, 0x33, 0x41, 0x3a,
  0x41, 0x4a, 0x41, 0xdf, 0xfe, 0x47, 0x31, 0x29, 0x34, 0x21, 0x27, 0x39,
  0x13, 0x2f, 0x37, 0x52, 0x25, 0x1c, 0x1f, 0x49, 0x3b, 0x0f, 0x2e, 0x20,
  0x31, 0x4c, 0x39, 0x42, 0x50, 0x69, 0x4c, 0x51, 0x69, 0x69, 0x60, 0x41,
  0x32, 0x39, 0x5a, 0x5a, 0x50, 0x41, 0x29, 0x36, 0x3f, 0x36, 0x7f, 0x4c,
  0x5a, 0x4c, 0x66, 0x30, 0x50, 0x37, 0x33, 0x33, 0x47, 0x3b, 0x3a, 0x58,
  0x27, 0x56, 0x3c, 0x39, 0x23, 0x48, 0x42, 0x60, 0xf8, 0x29, 0x48, 0x27,
  0x40, 0x33, 0x35, 0x2f, 0x36, 0x32, 0x26, 0x1a, 0x3a, 0x29, 0x16, 0x0f,
  0x2f, 0x2a, 0x07, 0x1f, 0x0a, 0x2f, 0x3c, 0x41, 0x2e, 0x53, 0x61, 0x54,
  0x64, 0x62, 0x5b, 0x44, 0x49, 0x4d, 0x33, 0x33, 0x1e, 0x52, 0x49, 0x47,
  0x64, 0x4e, 0x4a, 0x6b, 0x5f, 0x47, 0x2e, 0x44, 0x1f, 0x4c, 0x30, 0x1d,
  0x2d, 0x24, 0x51, 0x3f, 0x45, 0x3d, 0x4a, 0x37, 0x44, 0x2b, 0x58, 0x5b,
  0x5b, 0xd2, 0x0d, 0x3b, 0x3b, 0x33, 0x2c, 0x34, 0x27, 0x19, 0x13, 0x26,
  0x28, 0x42, 0x18, 0x16, 0x20, 0x21, 0x18, 0x1a, 0x05, 0x12, 0x28, 0x3b,
  0x2b, 0x38, 0x65, 0x67, 0x55, 0x47, 0x77, 0x41, 0x4e, 0x38, 0x48, 0x2f,
  0x54, 0x51, 0x3c, 0x39, 0x31, 0x47, 0x3c, 0x4f, 0x64, 0x4b, 0x26, 0x50,
  0x58, 0x39, 0x47, 0x37, 0x3d, 0x41, 0x57, 0x23, 0x29, 0x59, 0x38, 0x38,
  0x61, 0x45, 0x38, 0x34, 0x5a, 0x5c, 0xcb, 0xff, 0xe7, 0xdf, 0xf8, 0xf1,
  0xff, 0x01, 0xf1, 0x08, 0xfc, 0xfe, 0xf8, 0xf6, 0x05, 0x03, 0xf4, 0xee,
  0x00, 0xf7, 0xf1, 0xed, 0xe0, 0xe1, 0xcc, 0xc4, 0xbf, 0xc8, 0xca, 0xc2,
  0xc2, 0xbe, 0xc6, 0xcd, 0xb8, 0xc4, 0xb9, 0x9d, 0x9e, 0xa4, 0x9b, 0x95,
  0x95, 0x9a, 0x99, 0xa1, 0xa5, 0x99, 0xab, 0xb3, 0xaa, 0xb4, 0xb3, 0xb8,
  0xb1, 0xbc, 0xb0, 0xc3, 0xb0, 0xba, 0xb8, 0xc7, 0xcb, 0xbc, 0xae, 0xea,
  0x15, 0xee, 0xf9, 0x05, 0xf1, 0xf0, 0xf6, 0xf2, 0xff, 0x0a, 0xfd, 0x01,
  0xf9, 0x0c, 0x00, 0xf3, 0xf0, 0xff, 0xfc, 0xf4, 0xf6, 0xe9, 0xdb, 0xde,
  0xd2, 0xcf, 0xcb, 0xca, 0xcc, 0xd8, 0xc0, 0xc4, 0xcc, 0xc2, 0xc1, 0xb2,
  0xa9, 0xab, 0x9f, 0x96, 0x9f, 0x9b, 0xa6, 0x96, 0xae, 0xa3, 0xa9, 0xad,
  0xb8, 0xb9, 0xbd, 0xb1, 0xb9, 0xbe, 0xc6, 0xc3, 0xb8, 0xb2, 0xba, 0xbc,
  0xb3, 0xbf, 0xb1, 0xad, 0x2b, 0x05, 0xe4, 0xf0, 0xf8, 0xe8, 0xf4, 0xf9,
  0xee, 0xf3, 0xf4, 0xe8, 0xee, 0xf8, 0xf7, 0xf2, 0xe7, 0xdf, 0xff, 0xed,
  0xeb, 0xd0, 0xca, 0xcc, 0xbf, 0xba, 0xb6, 0xbd, 0xb6, 0xb0, 0xb0, 0xb3,
  0xac, 0xb0, 0xb9, 0xaf, 0xab, 0x9f, 0x9c, 0xa7, 0x8e, 0x8a, 0x9d, 0x81,
  0xaa, 0x8e, 0xa3, 0xa2, 0x9a, 0x9d, 0xa3, 0xae, 0xb5, 0xa7, 0xac, 0xa6,
  0xa5, 0xb7, 0xb2, 0xa9, 0xab, 0xb6, 0xad, 0x9d, 0xa1, 0xd9, 0xe6, 0x37,
  0x16, 0xdb, 0x0f, 0xde, 0x10, 0xe7, 0xe4, 0xc4, 0xe1, 0xf3, 0xf7, 0xda,
  0xd9, 0xb8, 0xca, 0xc8, 0xc1, 0xf1, 0xf5, 0x21, 0x17, 0x25, 0x29, 0x02,
  0xfa, 0x30, 0x27, 0xf9, 0xfc, 0x28, 0xf3, 0x16, 0x29, 0x47, 0x36, 0x55,
  0x32, 0x46, 0x49, 0x3c, 0x6b, 0x38, 0x3a, 0x41, 0x31, 0x34, 0x25, 0x22,
  0x32, 0x1e, 0x24, 0x2c, 0xfb, 0x1f, 0x09, 0x10, 0x09, 0x07, 0x11, 0x2c,
  0x1b, 0x40, 0x26, 0x41, 0x2e, 0x1d, 0xeb, 0x28, 0xe8, 0x1c, 0x03, 0xcc,
  0xd6, 0xdc, 0x0b, 0xf7, 0xd9, 0xd6, 0xc1, 0xbb, 0xc3, 0x04, 0x06, 0x2d,
  0x32, 0x18, 0x41, 0x30, 0x35, 0x28, 0x49, 0x2c, 0x40, 0x1d, 0x35, 0x30,
  0x3b, 0x48, 0x54, 0x5a, 0x57, 0x4f, 0x76, 0x7f, 0x6b, 0x56, 0x5a, 0x3f,
  0x45, 0x4a, 0x48, 0x4d, 0x4b, 0x1b, 0x19, 0x26, 0x4c, 0x36, 0x2a, 0x4e,
  0x45, 0x21, 0x4e, 0x33, 0x31, 0x38, 0x4c, 0xc4, 0x10, 0x4b, 0x1e, 0xd6,
  0x24, 0xee, 0x01, 0xdc, 0xe3, 0xdf, 0xe5, 0xe7, 0xe6, 0xc1, 0xce, 0xc4,
  0xb2, 0xc0, 0xcd, 0xe4, 0x0d, 0x08, 0x01, 0x01, 0x1c, 0xfd, 0x10, 0x2a,
  0x11, 0xf9, 0x17, 0x1c, 0x14, 0x20, 0x4b, 0x28, 0x34, 0x3b, 0x4b, 0x5a,
  0x42, 0x3e, 0x66, 0x3e, 0x35, 0x4e, 0x2c, 0x2b, 0x1d, 0x23, 0x29, 0x17,
  0x4a, 0x01, 0x1b, 0x11, 0x0c, 0x13, 0x2d, 0x15, 0x0c, 0x24, 0x33, 0x2c,
  0x00, 0x00, 0x00, 0x00, 0x00, 0x00, 0x00, 0x00, 0x00, 0x00, 0x00, 0x00,
  0x02, 0xf5, 0xff, 0xff, 0x04, 0x00, 0x00, 0x00, 0x20, 0x00, 0x00, 0x00,
  0x00, 0x00, 0x00, 0x00, 0x00, 0x00, 0x00, 0x00, 0x00, 0x00, 0x00, 0x00,
  0x00, 0x00, 0x00, 0x00, 0x00, 0x00, 0x00, 0x00, 0x00, 0x00, 0x00, 0x00,
  0x00, 0x00, 0x00, 0x00, 0x00, 0x00, 0x00, 0x00, 0x00, 0x00, 0x00, 0x00,
  0x32, 0xf5, 0xff, 0xff, 0x04, 0x00, 0x00, 0x00, 0x80, 0x09, 0x00, 0x00,
  0xd7, 0xe5, 0xfc, 0xd5, 0xe5, 0xe8, 0xf1, 0xfa, 0x25, 0x1c, 0x09, 0xe9,
  0xff, 0x10, 0xe0, 0xf0, 0xe1, 0xf7, 0x23, 0xe5, 0xf1, 0xe1, 0xd0, 0xfa,
  0x23, 0x16, 0x0c, 0xf4, 0x02, 0x05, 0xcf, 0xe5, 0xed, 0x0b, 0x1b, 0x03,
  0x18, 0x08, 0x0d, 0x1d, 0x20, 0x1b, 0x0c, 0x0a, 0x1f, 0xe9, 0xce, 0x0b,
  0x04, 0x18, 0x05, 0x10, 0x1d, 0x0b, 0x19, 0x0c, 0x32, 0x26, 0x0b, 0x06,
  0x0f, 0x08, 0x17, 0x09, 0xe8, 0x10, 0x06, 0x08, 0x23, 0x05, 0x05, 0x13,
  0x1f, 0x21, 0x10, 0x02, 0x22, 0x0c, 0xe0, 0x0c, 0xe0, 0x30, 0x05, 0x08,
  0x19, 0x13, 0x0f, 0x2b, 0x2e, 0x1d, 0xf3, 0x05, 0x12, 0xea, 0xd4, 0xf4,
  0xf2, 0x2a, 0x0e, 0xfa, 0x1e, 0xfc, 0xe5, 0x0c, 0x21, 0x38, 0x10, 0xf3,
  0x28, 0x0c, 0xf5, 0xcf, 0xdf, 0x03, 0x04, 0xee, 0x06, 0xf5, 0xe7, 0x0b,
  0x2c, 0x20, 0x12, 0x0c, 0xfb, 0x1c, 0xc3, 0xd1, 0xf0, 0xdc, 0xeb, 0xfd,
  0xeb, 0xf5, 0xfa, 0x00, 0xf3, 0xf4, 0xf8, 0x14, 0xec, 0xfe, 0xf3, 0x03,
  0xe5, 0xfc, 0xed, 0xe1, 0xf6, 0xf9, 0xe1, 0xf9, 0xfe, 0x05, 0xfc, 0x01,
  0xfb, 0xec, 0xe8, 0xda, 0xe2, 0x01, 0x2b, 0xe4, 0x16, 0xfa, 0xf2, 0x0a,
  0x1c, 0x28, 0x03, 0xec, 0x09, 0x0c, 0xde, 0xe9, 0xe1, 0x1a, 0x23, 0xf4,
  0x24, 0x0b, 0xf4, 0x19, 0x2a, 0x2b, 0x0b, 0xfb, 0x11, 0xf9, 0xe8, 0x04,
  0xea, 0xf3, 0xf6, 0xfa, 0x18, 0x07, 0x0c, 0x13, 0x2c, 0x1a, 0x13, 0xf1,
  0x0e, 0x0c, 0xef, 0xdb, 0xeb, 0xcd, 0xed, 0xdd, 0x05, 0xf6, 0xef, 0xfb,
  0x33, 0x20, 0x10, 0xed, 0xee, 0x11, 0xd0, 0xe2, 0xe7, 0xe6, 0xe8, 0xd4,
  0xec, 0xed, 0xf5, 0x0f, 0x17, 0x1a, 0x14, 0x08, 0xee, 0x0e, 0xe5, 0xde,
  0xc5, 0x0f, 0xe0, 0xd6, 0x07, 0xd9, 0xef, 0xf5, 0x2f, 0x2a, 0x0b, 0xe8,
  0xe6, 0x03, 0xde, 0xe3, 0x0b, 0x2d, 0xf9, 0xec, 0x05, 0xf7, 0xf3, 0x10,
  0x17, 0x25, 0x13, 0xef, 0x14, 0x05, 0x22, 0xf8, 0xd6, 0x05, 0xf2, 0xfa,
  0x2d, 0x0d, 0x14, 0x04, 0x46, 0x3f, 0x13, 0xf8, 0x15, 0x0b, 0xfe, 0xff,
  0xf6, 0xe6, 0xfb, 0xda, 0x02, 0xe8, 0xea, 0xfa, 0x27, 0x1b, 0x19, 0xfa,
  0xfc, 0x18, 0x09, 0xcf, 0xc9, 0x12, 0xf4, 0xbf, 0x0a, 0xcb, 0xc6, 0xe8,
  0x0e, 0x26, 0x14, 0xf1, 0xf0, 0x1a, 0xc6, 0xcc, 0xd3, 0x19, 0x0c, 0x01,
  0x0f, 0x00, 0x00, 0x03, 0x22, 0x16, 0x08, 0xf7, 0xfe, 0xfc, 0xf2, 0xe9,
  0xe5, 0xfe, 0xfc, 0x00, 0xfd, 0x06, 0x00, 0x0d, 0x14, 0x17, 0x02, 0xe2,
  0xf5, 0xf4, 0xf5, 0xea, 0xe2, 0xf6, 0xf5, 0xf3, 0xf2, 0xf8, 0xe5, 0xeb,
  0xf5, 0x04, 0xfd, 0xed, 0xe6, 0xeb, 0xbe, 0xda, 0xe8, 0x11, 0x12, 0x03,
  0x07, 0x16, 0x08, 0x09, 0xff, 0x0b, 0xfa, 0xf1, 0x19, 0xd8, 0xeb, 0x03,
  0xe2, 0x0b, 0x15, 0x23, 0x1a, 0x1a, 0x13, 0x19, 0x1a, 0x17, 0x11, 0xe6,
  0x12, 0xf8, 0x05, 0xf7, 0xef, 0xd0, 0xee, 0xf1, 0xf3, 0xfd, 0xfe, 0xf5,
  0x2d, 0x27, 0x16, 0xe1, 0xf0, 0x0f, 0xef, 0xed, 0xde, 0xdf, 0x05, 0xf1,
  0xdf, 0xee, 0x09, 0x00, 0x07, 0x0d, 0x1a, 0x18, 0xef, 0x0c, 0xe4, 0xf3,
  0xdc, 0x26, 0xfc, 0xe4, 0xff, 0xfc, 0xed, 0x02, 0x0f, 0x0b, 0x05, 0x11,
  0xe6, 0xf8, 0xf1, 0x0b, 0xd3, 0x01, 0xef, 0xf6, 0xfa, 0xfa, 0xe6, 0x07,
  0x00, 0x0d, 0x05, 0xfd, 0xec, 0x04, 0xd9, 0xdc, 0xe4, 0x0f, 0x01, 0xfc,
  0xf6, 0x12, 0x11, 0x01, 0x04, 0x07, 0x03, 0xf4, 0xfe, 0xef, 0xd8, 0xe9,
  0xf9, 0x0d, 0x09, 0x00, 0x14, 0x0a, 0xfa, 0xf6, 0x1b, 0x1c, 0x0a, 0xee,
  0xf7, 0xf4, 0xeb, 0x0e, 0xd9, 0x12, 0x12, 0xf8, 0x29, 0x0c, 0x05, 0x18,
  0x3f, 0x37, 0xfd, 0xe0, 0x11, 0x0a, 0xd9, 0xe5, 0xdd, 0xf8, 0xe6, 0x08,
  0x1e, 0x08, 0xf9, 0xf5, 0x1d, 0x2a, 0x05, 0xdd, 0x04, 0xde, 0xe2, 0x02,
  0xec, 0xe2, 0x01, 0xfc, 0xe8, 0xfe, 0x0c, 0xef, 0x18, 0x10, 0xff, 0xf4,
  0xfd, 0xea, 0xf7, 0xf1, 0xdb, 0xc8, 0x0e, 0xeb, 0xd7, 0xdc, 0xf3, 0xe7,
  0x24, 0x16, 0x01, 0xf4, 0xd3, 0xdf, 0xc0, 0xf1, 0xf7, 0x2d, 0xf7, 0xf6,
  0x13, 0xf8, 0xfe, 0x04, 0x1f, 0x3d, 0x10, 0xf2, 0xeb, 0xf4, 0xe6, 0xf7,
  0xd3, 0xe1, 0xe2, 0xd3, 0x18, 0xe4, 0xe2, 0xea, 0x20, 0x1e, 0x0e, 0xfc,
  0xda, 0x0d, 0xd0, 0xd3, 0x0e, 0xd6, 0xdd, 0xcf, 0xff, 0xc4, 0xbd, 0xe6,
  0x01, 0x1a, 0x22, 0x03, 0xf4, 0x06, 0xce, 0xc2, 0x17, 0x00, 0xe3, 0x02,
  0x03, 0xf0, 0xe4, 0xc9, 0xcc, 0xec, 0x0a, 0x14, 0xe8, 0xf5, 0xf3, 0xf5,
  0x17, 0xe4, 0xcf, 0xfe, 0xe1, 0xfe, 0x07, 0xe7, 0xd7, 0xda, 0x09, 0x0d,
  0xef, 0xfe, 0x02, 0xe6, 0x14, 0xd8, 0xcd, 0xf0, 0xcf, 0xd1, 0xcf, 0xb7,
  0xc5, 0xdd, 0x0d, 0x12, 0xc0, 0x10, 0x0a, 0xd5, 0xf7, 0xd7, 0xd6, 0xd4,
  0xdb, 0xc8, 0xc8, 0xf0, 0xd0, 0xdc, 0x0f, 0x03, 0xe4, 0x0a, 0xc5, 0xd8,
  0x11, 0xc0, 0xd8, 0xcd, 0xd1, 0xcf, 0xcc, 0xcf, 0xe7, 0xee, 0x1d, 0xff,
  0xbd, 0x11, 0xff, 0xd1, 0x18, 0xb6, 0xcf, 0xbc, 0xb5, 0xba, 0xb4, 0xb9,
  0xd9, 0xea, 0x20, 0x09, 0xc9, 0x24, 0x00, 0xd3, 0x03, 0x8b, 0xc7, 0xd1,
  0xd6, 0xdd, 0xfc, 0xbe, 0xed, 0xdb, 0x10, 0x10, 0xa2, 0x04, 0xe9, 0xff,
  0x1a, 0xf1, 0xdb, 0xcc, 0xe3, 0xd5, 0xee, 0xe5, 0xd2, 0xfa, 0x0b, 0xea,
  0xfd, 0xfc, 0x0f, 0xfe, 0x15, 0x52, 0xdf, 0xc9, 0x08, 0xc6, 0xce, 0x00,
  0x25, 0x12, 0x19, 0xf7, 0xec, 0x1f, 0xdb, 0xdc, 0x13, 0x08, 0xd6, 0xda,
  0xe7, 0xe9, 0xed, 0xe4, 0xee, 0x07, 0x1b, 0x11, 0xf2, 0x29, 0xfb, 0xe3,
  0x11, 0xf6, 0xd6, 0xec, 0xc7, 0xef, 0xee, 0xd2, 0xde, 0xce, 0x13, 0x0d,
  0xd5, 0x0d, 0xfd, 0xfc, 0x24, 0x01, 0xde, 0x09, 0xd0, 0xf4, 0xf4, 0xe7,
  0xcf, 0xd0, 0x12, 0x10, 0xe0, 0x0c, 0xf1, 0x09, 0x0b, 0xfd, 0xe5, 0xed,
  0xe7, 0xe3, 0xef, 0xe9, 0xd0, 0xf2, 0x0e, 0x10, 0xdf, 0x0b, 0xf3, 0x07,
  0x06, 0x34, 0xf6, 0xe9, 0xda, 0xea, 0xf0, 0xe1, 0xca, 0xe7, 0x0c, 0x0e,
  0x07, 0x01, 0x02, 0xdd, 0x0e, 0x15, 0xf8, 0xd8, 0xfa, 0xe4, 0xdf, 0xef,
  0xdf, 0xf8, 0x0c, 0x06, 0x1e, 0x04, 0xe0, 0xe4, 0x20, 0xa9, 0xef, 0xe8,
  0xc8, 0xdb, 0xe9, 0xc5, 0xb2, 0xd3, 0x1b, 0x0d, 0x06, 0x12, 0xfc, 0xe2,
  0xf8, 0x8a, 0xdf, 0xe5, 0xd9, 0xdd, 0xdd, 0xd8, 0xed, 0xd6, 0x17, 0x14,
  0xdb, 0x0e, 0xc7, 0xd7, 0x24, 0xad, 0xde, 0xc5, 0xbc, 0xc9, 0xc9, 0xd1,
  0x9c, 0xc3, 0x0f, 0x06, 0xd9, 0x12, 0xe1, 0xdf, 0xf6, 0x0d, 0xe7, 0xd3,
  0xdd, 0xe0, 0xf2, 0xec, 0xdc, 0xdf, 0x0e, 0x03, 0x00, 0xfe, 0xd2, 0xfa,
  0x26, 0xbf, 0xf3, 0x02, 0xda, 0x0d, 0x00, 0xf2, 0xed, 0xf0, 0x0f, 0x03,
  0xe9, 0xff, 0x01, 0xf8, 0x14, 0xd4, 0xe3, 0xb8, 0xe1, 0xc1, 0xbf, 0xde,
  0xdf, 0xe8, 0x20, 0xff, 0x06, 0x1e, 0xe0, 0xe8, 0x08, 0xf1, 0xef, 0xc3,
  0xfd, 0xbc, 0xce, 0xf5, 0xed, 0xed, 0x24, 0x0a, 0x24, 0x2a, 0xd8, 0xda,
  0x0c, 0x1e, 0xfe, 0xe0, 0xfb, 0xe7, 0xfa, 0x05, 0xee, 0xf6, 0x16, 0x1f,
  0x11, 0x13, 0x05, 0xf5, 0x11, 0xf2, 0xdf, 0xea, 0xe0, 0xd2, 0xe7, 0xeb,
  0xfb, 0xec, 0x13, 0x1a, 0xe4, 0x1d, 0xf3, 0xee, 0x0e, 0xe9, 0xe7, 0xd9,
  0xd8, 0xcc, 0xeb, 0xf1, 0xd8, 0xd8, 0x13, 0x1b, 0xee, 0x04, 0xd9, 0xf1,
  0x18, 0x4b, 0x00, 0xde, 0xf1, 0xe1, 0xf5, 0xf5, 0xb4, 0xc2, 0x10, 0x16,
  0x02, 0x00, 0xff, 0xf8, 0x22, 0x31, 0xf4, 0xef, 0x15, 0xdc, 0xce, 0xe4,
  0xf7, 0xf2, 0x07, 0x06, 0x2e, 0xf3, 0xf8, 0xfa, 0x12, 0xd6, 0xee, 0xdf,
  0xdc, 0xdd, 0xd4, 0xd1, 0xf7, 0xec, 0x14, 0x04, 0x1a, 0x09, 0xe2, 0xeb,
  0x1d, 0xe7, 0xf6, 0xe7, 0x01, 0xd0, 0xe5, 0xef, 0xfa, 0x02, 0x1d, 0x1b,
  0x08, 0x13, 0xf1, 0xf5, 0x27, 0xf8, 0xe5, 0xd3, 0xfd, 0xd3, 0xdf, 0xf5,
  0x0d, 0x11, 0x23, 0x10, 0x0f, 0x25, 0x0f, 0xf3, 0xfa, 0xd5, 0xe5, 0xcc,
  0xe1, 0xc2, 0xdf, 0xe5, 0xeb, 0xee, 0x11, 0x0b, 0xf2, 0x0e, 0xed, 0xdf,
  0x10, 0xd6, 0xdf, 0xe6, 0xb8, 0xd6, 0xde, 0xd7, 0xc5, 0xd3, 0x1f, 0x20,
  0xe3, 0x09, 0xf5, 0xea, 0x1e, 0xc2, 0xed, 0xc4, 0xaa, 0xcc, 0xe2, 0xd8,
  0xce, 0xce, 0x18, 0x11, 0xe0, 0x21, 0xef, 0xd9, 0x07, 0x25, 0xf4, 0xb5,
  0x07, 0xb1, 0xd6, 0x13, 0xf3, 0x16, 0x27, 0x0a, 0x12, 0x28, 0xe5, 0xd4,
  0x0f, 0x2e, 0xf5, 0xce, 0x16, 0xef, 0xde, 0x0d, 0xef, 0x07, 0x17, 0x1b,
  0x2b, 0x2b, 0x03, 0xda, 0xfd, 0xb7, 0xeb, 0xb4, 0xc7, 0xd9, 0xd0, 0xe5,
  0xd0, 0xcf, 0x19, 0x09, 0xfb, 0x18, 0xf0, 0xe3, 0x16, 0x04, 0x1a, 0xe5,
  0xc1, 0xd3, 0xd5, 0xf5, 0xd9, 0xd8, 0x18, 0x13, 0x20, 0x0e, 0xea, 0xee,
  0xe9, 0x41, 0xfe, 0x0b, 0x08, 0x1b, 0xf8, 0x19, 0xeb, 0xdb, 0x00, 0x0b,
  0xf7, 0xf9, 0xec, 0x01, 0x15, 0xe8, 0xeb, 0x0d, 0x00, 0x05, 0x0f, 0xe7,
  0xf2, 0xe5, 0x04, 0x01, 0xe7, 0x0b, 0x18, 0x0f, 0x19, 0xf4, 0xe9, 0x0a,
  0xff, 0x0b, 0x08, 0xfb, 0xee, 0x0b, 0x10, 0x07, 0xec, 0x2c, 0x14, 0x1f,
  0x07, 0xf1, 0xe5, 0x10, 0xfc, 0x01, 0x15, 0xee, 0xfe, 0xfe, 0xf2, 0xf5,
  0xf7, 0x1b, 0x19, 0x18, 0x17, 0xf3, 0xe4, 0x02, 0xf7, 0x03, 0x09, 0xea,
  0xef, 0xf0, 0xe9, 0xfe, 0xf0, 0xe0, 0x13, 0x19, 0x0d, 0xf0, 0xe4, 0x08,
  0xef, 0x04, 0x12, 0xf1, 0xc4, 0xd8, 0xed, 0x13, 0xf1, 0xaf, 0x18, 0x08,
  0x0d, 0xf9, 0xed, 0x1c, 0xf9, 0x09, 0x1a, 0xf2, 0xe1, 0xd8, 0xe0, 0x05,
  0x00, 0xa6, 0x16, 0x10, 0x0e, 0xeb, 0xfd, 0x0c, 0xfa, 0x0d, 0x1e, 0x01,
  0xdb, 0xe3, 0xe4, 0x09, 0x01, 0xa1, 0x21, 0x21, 0x0b, 0xfc, 0x06, 0x0f,
  0x09, 0x0b, 0x07, 0x04, 0xdd, 0xe6, 0xe9, 0xf9, 0x04, 0xa6, 0x1d, 0x17,
  0x0e, 0xfd, 0x05, 0x0f, 0x06, 0x07, 0x11, 0xfd, 0xdd, 0xe7, 0xea, 0x05,
  0x08, 0x9b, 0x14, 0x12, 0x1d, 0xfe, 0xf2, 0x0a, 0x0a, 0x15, 0x0e, 0x02,
  0xed, 0xe1, 0xef, 0x01, 0xfc, 0xd1, 0x27, 0x18, 0x1f, 0xf7, 0xe5, 0x0a,
  0x02, 0x06, 0x17, 0xec, 0xea, 0x06, 0xfd, 0x19, 0xed, 0xe8, 0x0d, 0x14,
  0x15, 0xf6, 0xe2, 0xfe, 0x05, 0x14, 0x0a, 0xf7, 0xdc, 0xf7, 0xf1, 0xf5,
  0xe8, 0xf3, 0x09, 0x0c, 0x13, 0xff, 0xf6, 0x02, 0xf9, 0x06, 0x12, 0xfe,
  0xf9, 0xee, 0xf4, 0xfa, 0xff, 0xc6, 0x10, 0x15, 0x07, 0x03, 0xee, 0x13,
  0xf9, 0xfe, 0x10, 0xfb, 0xe9, 0xdf, 0xec, 0x0d, 0xf5, 0xac, 0x06, 0x0b,
  0x03, 0xfb, 0x0a, 0x09, 0xf9, 0x08, 0x13, 0x0a, 0xf0, 0xed, 0xed, 0x05,
  0xfc, 0x8f, 0x11, 0x13, 0x12, 0xf7, 0x02, 0xfe, 0x06, 0xfa, 0xfe, 0xfc,
  0xf0, 0xe9, 0xe9, 0x00, 0xf6, 0x81, 0x13, 0x15, 0x14, 0xf4, 0xff, 0x13,
  0xf9, 0x00, 0x13, 0x00, 0xde, 0xf0, 0xe1, 0xf1, 0xfb, 0x92, 0x0a, 0x11,
  0x03, 0x03, 0xee, 0x06, 0xfe, 0x06, 0x06, 0xfd, 0xe7, 0xdc, 0xe2, 0x07,
  0xf7, 0x93, 0x14, 0x08, 0x0f, 0xfa, 0x08, 0x0a, 0x08, 0x08, 0x09, 0x01,
  0xf9, 0xea, 0xe3, 0x06, 0x04, 0x85, 0x0c, 0x17, 0x10, 0x02, 0xef, 0x13,
  0xf1, 0x02, 0x17, 0xf6, 0xd8, 0xe9, 0xde, 0xfd, 0xf5, 0x8f, 0x28, 0x09,
  0x05, 0x06, 0xee, 0x06, 0x01, 0x00, 0x11, 0xf5, 0xea, 0xd8, 0xe1, 0x01,
  0x02, 0x91, 0x06, 0x06, 0x17, 0x05, 0xff, 0x04, 0x00, 0x08, 0x18, 0xf9,
  0xf1, 0xe8, 0xe2, 0xf8, 0x04, 0xbb, 0x07, 0x22, 0x10, 0xfe, 0x03, 0x07,
  0xfe, 0x09, 0x0f, 0x03, 0x00, 0x07, 0xf2, 0xfe, 0x0a, 0x1c, 0x1e, 0x06,
  0xf0, 0x05, 0xef, 0xfd, 0xf8, 0xf2, 0x0e, 0xf8, 0xf5, 0xfb, 0xfe, 0xf8,
  0x03, 0x05, 0x0b, 0xf2, 0x01, 0x08, 0xe9, 0x05, 0xf7, 0x01, 0x06, 0xfb,
  0xe6, 0xf8, 0xf6, 0xea, 0xfd, 0xfd, 0x0d, 0x0e, 0x15, 0x13, 0xfa, 0xfb,
  0x0b, 0xfe, 0x0c, 0x08, 0x07, 0x04, 0xf7, 0x00, 0xfe, 0xf9, 0x10, 0x00,
  0x04, 0x0c, 0xf5, 0x0b, 0xf8, 0x13, 0x04, 0xfd, 0xfc, 0xf0, 0xf3, 0xf9,
  0xf7, 0xec, 0x08, 0x0c, 0x00, 0x02, 0xf7, 0x0c, 0xfb, 0x00, 0x16, 0xfc,
  0xe2, 0xe6, 0xf2, 0x03, 0xf8, 0xdf, 0x17, 0x16, 0xff, 0xfa, 0xee, 0x02,
  0xfd, 0x04, 0x0a, 0x0e, 0xf1, 0xd9, 0xe7, 0xf2, 0xf9, 0xdf, 0x0c, 0x0e,
  0x06, 0xfc, 0xef, 0x02, 0xf2, 0xfa, 0xff, 0xf1, 0xe6, 0xdc, 0xf5, 0xfc,
  0xf6, 0xad, 0x05, 0xfb, 0x1d, 0xf2, 0xe8, 0x07, 0xfb, 0x01, 0x00, 0xeb,
  0xd3, 0xd2, 0xeb, 0x0b, 0x0f, 0xa7, 0x0a, 0x0a, 0x05, 0xdf, 0xf1, 0x11,
  0xf3, 0x08, 0xfb, 0xf2, 0xc3, 0xca, 0xe6, 0x04, 0xf3, 0xb0, 0x0a, 0x08,
  0x13, 0x03, 0xe9, 0x0a, 0xff, 0x02, 0x14, 0xed, 0xd8, 0xc9, 0xf2, 0x09,
  0x05, 0xc1, 0x15, 0x05, 0x1d, 0x12, 0xfe, 0x02, 0x00, 0x01, 0x0b, 0xfc,
  0xd9, 0xe6, 0xf3, 0xfd, 0x01, 0xc5, 0x0b, 0x10, 0x1e, 0x09, 0xe1, 0x11,
  0xf1, 0x00, 0x20, 0xff, 0xd2, 0xdc, 0xf1, 0xff, 0xfc, 0xd4, 0x10, 0x06,
  0x20, 0x02, 0xed, 0x04, 0x04, 0x05, 0x1f, 0x0a, 0xd7, 0xde, 0xee, 0x0d,
  0x0e, 0xe1, 0x27, 0x20, 0x0d, 0xef, 0xf4, 0x0f, 0xf8, 0x11, 0x05, 0xf4,
  0xee, 0xe3, 0xe0, 0x07, 0xfa, 0xe0, 0x0d, 0x10, 0x33, 0xce, 0xee, 0x08,
  0xdf, 0x08, 0x0e, 0xfa, 0xde, 0xe3, 0xfa, 0xfd, 0x01, 0xc5, 0x38, 0x1b,
  0xde, 0x23, 0x21, 0x0a, 0x0f, 0x0a, 0xfd, 0x17, 0x23, 0x23, 0xdb, 0xf5,
  0x1c, 0xf0, 0xfa, 0x07, 0xe3, 0x11, 0x0f, 0xff, 0x19, 0x0e, 0xf9, 0x14,
  0x25, 0x13, 0xd1, 0xfa, 0x0e, 0xbe, 0xe8, 0xf8, 0xf0, 0x00, 0x14, 0xfe,
  0xfe, 0x08, 0xf8, 0x16, 0x20, 0x07, 0xd9, 0xf1, 0x00, 0xc0, 0xf6, 0xf4,
  0xf4, 0x14, 0x25, 0x09, 0x10, 0x0c, 0xf4, 0x18, 0x06, 0x03, 0xd7, 0xf9,
  0x19, 0xa9, 0xee, 0xf2, 0xf0, 0x25, 0x24, 0x0f, 0x18, 0x12, 0x07, 0x16,
  0x21, 0x28, 0xd0, 0xe4, 0x1e, 0xae, 0xee, 0xf5, 0xf7, 0x12, 0x1e, 0x02,
  0x05, 0x03, 0xf7, 0x10, 0x1d, 0x24, 0xdd, 0xf4, 0x15, 0xb4, 0xfb, 0x00,
  0xf3, 0x15, 0x09, 0x03, 0x08, 0x07, 0xed, 0x13, 0x19, 0x06, 0xd7, 0xf5,
  0x0b, 0xdf, 0xe4, 0xeb, 0xf6, 0x16, 0x10, 0x00, 0x0b, 0xfd, 0xf9, 0x0e,
  0x12, 0x0a, 0xdd, 0x01, 0x0f, 0xa3, 0xf5, 0xf5, 0xf8, 0x0c, 0x19, 0xfb,
  0x01, 0x03, 0xfa, 0x0b, 0x16, 0x04, 0xdf, 0xf4, 0xfe, 0xbb, 0xf4, 0xf2,
  0xe5, 0x0b, 0x10, 0x0a, 0x03, 0xfe, 0xf5, 0x16, 0x16, 0x04, 0xde, 0xf4,
  0xfd, 0xd1, 0xe8, 0xfc, 0xf1, 0x05, 0x17, 0x0d, 0x01, 0xfd, 0x01, 0x13,
  0x04, 0x04, 0xdc, 0xf7, 0x0c, 0xb5, 0xf2, 0xec, 0xf9, 0x06, 0x15, 0x07,
  0xff, 0xff, 0x00, 0x0e, 0x10, 0x04, 0xe2, 0x00, 0x14, 0xcc, 0xf3, 0xfc,
  0xf0, 0x16, 0x26, 0x06, 0x0d, 0x11, 0xf6, 0x15, 0x1c, 0x15, 0xd4, 0x01,
  0x02, 0xc8, 0x01, 0xf3, 0xff, 0x06, 0x14, 0x0d, 0x04, 0x05, 0x03, 0x08,
  0x0e, 0x13, 0xdc, 0x00, 0x16, 0xcd, 0xf5, 0x05, 0xfe, 0x00, 0x0d, 0x13,
  0x0b, 0x03, 0x08, 0x08, 0x08, 0x07, 0xe6, 0xf5, 0xfc, 0xd6, 0x05, 0x05,
  0x00, 0x0b, 0x0e, 0x19, 0x0b, 0x12, 0x0e, 0x1a, 0x01, 0x03, 0xeb, 0xf4,
  0x05, 0xd7, 0xfc, 0xf8, 0xf0, 0x1b, 0x16, 0x12, 0x0c, 0x0d, 0xf5, 0x14,
  0x15, 0xff, 0xee, 0x07, 0x13, 0xd4, 0x00, 0x0c, 0x0c, 0x0b, 0x1e, 0x08,
  0x10, 0x0b, 0x05, 0x10, 0x0c, 0xfd, 0xd5, 0x05, 0x17, 0xc2, 0xff, 0x06,
  0xfb, 0x14, 0x19, 0x04, 0x17, 0xf8, 0x05, 0x12, 0x0d, 0x07, 0xf1, 0xfa,
  0x17, 0xc6, 0x0d, 0xf8, 0x06, 0x09, 0x1c, 0x04, 0x0b, 0x19, 0x0c, 0x0b,
  0x19, 0x0f, 0xe2, 0xfe, 0x06, 0xd3, 0xe3, 0x08, 0xf0, 0x0b, 0x18, 0x0e,
  0x06, 0x08, 0x16, 0x13, 0x00, 0x08, 0xe8, 0xf2, 0x12, 0xbc, 0x0a, 0x07,
  0xfc, 0xfe, 0x0b, 0x07, 0x0e, 0x08, 0x05, 0x00, 0x01, 0x0e, 0xdf, 0x08,
  0x05, 0xd5, 0xf8, 0xe8, 0xf7, 0x0b, 0x14, 0x0b, 0x0c, 0x08, 0x01, 0x0e,
  0x03, 0x14, 0xdb, 0xf8, 0x05, 0xd3, 0xf7, 0x04, 0x0a, 0xf7, 0x19, 0x08,
  0x16, 0x0e, 0x01, 0x0c, 0x09, 0x02, 0xec, 0x05, 0x0c, 0xb4, 0xf9, 0x0d,
  0xfc, 0x0b, 0x21, 0x0a, 0x0a, 0x08, 0x0e, 0x0f, 0x15, 0xff, 0xe5, 0x09,
  0x03, 0xc4, 0xed, 0xf8, 0xf1, 0x08, 0x1c, 0x03, 0x0a, 0x0f, 0x06, 0x10,
  0x14, 0x0c, 0xe0, 0xf7, 0x16, 0xb6, 0xf8, 0xff, 0xf5, 0xf5, 0x1c, 0x08,
  0x12, 0xf4, 0x0a, 0x07, 0x08, 0x02, 0xdc, 0x04, 0x0d, 0xc6, 0xf5, 0x0f,
  0xf6, 0xff, 0x27, 0x09, 0x0b, 0x01, 0xfe, 0x0f, 0x0b, 0x03, 0xe9, 0xf2,
  0x1d, 0xbc, 0xfc, 0x01, 0xf1, 0x11, 0x1c, 0x0e, 0x10, 0x10, 0x05, 0x08,
  0x08, 0x09, 0xe7, 0xf7, 0xfb, 0xb5, 0xff, 0x06, 0xf5, 0x00, 0x20, 0x05,
  0x14, 0x0a, 0x16, 0x13, 0x16, 0x04, 0xd7, 0x06, 0x11, 0xbc, 0x02, 0x05,
  0xe1, 0x18, 0x14, 0x09, 0x18, 0x15, 0x07, 0x17, 0x1f, 0x20, 0xe0, 0xf7,
  0xfa, 0xba, 0x03, 0x04, 0xfa, 0x25, 0x23, 0x0f, 0x18, 0x11, 0x0d, 0x09,
  0x1d, 0x1a, 0xd6, 0xed, 0x08, 0xb8, 0xf8, 0x05, 0xee, 0x1e, 0x2d, 0x1a,
  0x0c, 0x1a, 0xf1, 0x19, 0x22, 0x17, 0xd6, 0x05, 0x16, 0xae, 0xf9, 0x0a,
  0xf2, 0xfa, 0x11, 0x04, 0x0f, 0x06, 0x0b, 0x14, 0x18, 0xfe, 0xdf, 0xf0,
  0x09, 0x97, 0xf1, 0x05, 0xec, 0xfc, 0x24, 0xfb, 0x0a, 0x11, 0xfa, 0x15,
  0x19, 0x0f, 0xe5, 0xfa, 0x10, 0xb1, 0xfa, 0x02, 0xe6, 0x0a, 0x0f, 0x04,
  0x0c, 0x07, 0x00, 0x10, 0x16, 0x0a, 0xda, 0xed, 0xf5, 0xbc, 0xf9, 0xfc,
  0xe6, 0x11, 0x15, 0x0c, 0x0f, 0x0d, 0x0e, 0x16, 0x25, 0x0e, 0xe8, 0xe4,
  0x05, 0x97, 0xf9, 0x00, 0xcb, 0x15, 0x16, 0x13, 0x1f, 0x0a, 0x07, 0x05,
  0x29, 0x10, 0xe1, 0xe4, 0x01, 0xa6, 0xd7, 0x00, 0x00, 0x00, 0x00, 0x00,
  0xc2, 0xfe, 0xff, 0xff, 0x04, 0x00, 0x00, 0x00, 0x10, 0x00, 0x00, 0x00,
  0x23, 0x01, 0x00, 0x00, 0x32, 0x02, 0x00, 0x00, 0x86, 0xfe, 0xff, 0xff,
  0x70, 0xfe, 0xff, 0xff, 0x00, 0x00, 0x00, 0x00, 0xe2, 0xfe, 0xff, 0xff,
  0x04, 0x00, 0x00, 0x00, 0x10, 0x00, 0x00, 0x00, 0xcd, 0x2c, 0xf1, 0xd0,
  0xe1, 0xfb, 0xc7, 0xeb, 0x2d, 0x1b, 0x7f, 0xe7, 0xb9, 0x5a, 0xb0, 0xac,
  0x00, 0x00, 0x00, 0x00, 0x02, 0xff, 0xff, 0xff, 0x04, 0x00, 0x00, 0x00,
  0x08, 0x00, 0x00, 0x00, 0x7f, 0x71, 0xd8, 0x27, 0xf9, 0x15, 0x31, 0xf8,
  0x00, 0x00, 0x00, 0x00, 0x00, 0x00, 0x00, 0x00, 0x00, 0x00, 0x00, 0x00,
  0x22, 0xff, 0xff, 0xff, 0x04, 0x00, 0x00, 0x00, 0x08, 0x00, 0x00, 0x00,
  0xff, 0xff, 0xff, 0xff, 0x60, 0x02, 0x00, 0x00, 0x00, 0x00, 0x00, 0x00,
  0xf0, 0xe5, 0xff, 0xff, 0x00, 0x00, 0x00, 0x00, 0x00, 0x00, 0x00, 0x00,
  0x00, 0x00, 0x00, 0x00, 0x00, 0xe6, 0xff, 0xff, 0x00, 0x00, 0x00, 0x00,
  0x00, 0x00, 0x00, 0x00, 0x0f, 0x00, 0x00, 0x00, 0x4d, 0x4c, 0x49, 0x52,
  0x20, 0x43, 0x6f, 0x6e, 0x76, 0x65, 0x72, 0x74, 0x65, 0x64, 0x2e, 0x00,
  0x01, 0x00, 0x00, 0x00, 0x14, 0x00, 0x00, 0x00, 0x00, 0x00, 0x0e, 0x00,
  0x18, 0x00, 0x04, 0x00, 0x08, 0x00, 0x0c, 0x00, 0x10, 0x00, 0x14, 0x00,
  0x0e, 0x00, 0x00, 0x00, 0x50, 0x03, 0x00, 0x00, 0x44, 0x03, 0x00, 0x00,
  0x38, 0x03, 0x00, 0x00, 0x14, 0x00, 0x00, 0x00, 0x04, 0x00, 0x00, 0x00,
  0x04, 0x00, 0x00, 0x00, 0x6d, 0x61, 0x69, 0x6e, 0x00, 0x00, 0x00, 0x00,
  0x0f, 0x00, 0x00, 0x00, 0xfc, 0x02, 0x00, 0x00, 0xb0, 0x02, 0x00, 0x00,
  0x7c, 0x02, 0x00, 0x00, 0x44, 0x02, 0x00, 0x00, 0x20, 0x02, 0x00, 0x00,
  0xd0, 0x01, 0x00, 0x00, 0x9c, 0x01, 0x00, 0x00, 0x5c, 0x01, 0x00, 0x00,
  0x38, 0x01, 0x00, 0x00, 0x00, 0x01, 0x00, 0x00, 0xdc, 0x00, 0x00, 0x00,
  0x9c, 0x00, 0x00, 0x00, 0x78, 0x00, 0x00, 0x00, 0x40, 0x00, 0x00, 0x00,
  0x04, 0x00, 0x00, 0x00, 0x66, 0xfe, 0xff, 0xff, 0x00, 0x00, 0x00, 0x09,
  0x05, 0x00, 0x00, 0x00, 0x24, 0x00, 0x00, 0x00, 0x18, 0x00, 0x00, 0x00,
  0x0c, 0x00, 0x00, 0x00, 0x00, 0x00, 0x06, 0x00, 0x08, 0x00, 0x04, 0x00,
  0x06, 0x00, 0x00, 0x00, 0x00, 0x00, 0x80, 0x3f, 0x01, 0x00, 0x00, 0x00,
  0x1e, 0x00, 0x00, 0x00, 0x01, 0x00, 0x00, 0x00, 0x1d, 0x00, 0x00, 0x00,
  0xce, 0xfd, 0xff, 0xff, 0x00, 0x00, 0x00, 0x08, 0x04, 0x00, 0x00, 0x00,
  0x18, 0x00, 0x00, 0x00, 0x0c, 0x00, 0x00, 0x00, 0x04, 0x00, 0x00, 0x00,
  0xec, 0xe6, 0xff, 0xff, 0x01, 0x00, 0x00, 0x00, 0x1d, 0x00, 0x00, 0x00,
  0x03, 0x00, 0x00, 0x00, 0x1c, 0x00, 0x00, 0x00, 0x05, 0x00, 0x00, 0x00,
  0x04, 0x00, 0x00, 0x00, 0xb6, 0xfd, 0xff, 0xff, 0x10, 0x00, 0x00, 0x00,
  0x04, 0x00, 0x00, 0x00, 0x01, 0x00, 0x00, 0x00, 0x1c, 0x00, 0x00, 0x00,
  0x02, 0x00, 0x00, 0x00, 0x1b, 0x00, 0x00, 0x00, 0x01, 0x00, 0x00, 0x00,
  0x22, 0xfe, 0xff, 0xff, 0x00, 0x00, 0x00, 0x05, 0x03, 0x00, 0x00, 0x00,
  0x28, 0x00, 0x00, 0x00, 0x1c, 0x00, 0x00, 0x00, 0x04, 0x00, 0x00, 0x00,
  0xe2, 0xfe, 0xff, 0xff, 0x01, 0x00, 0x00, 0x00, 0x02, 0x00, 0x00, 0x00,
  0x01, 0x00, 0x00, 0x00, 0x02, 0x00, 0x00, 0x00, 0x01, 0x00, 0x00, 0x00,
  0x1b, 0x00, 0x00, 0x00, 0x01, 0x00, 0x00, 0x00, 0x1a, 0x00, 0x00, 0x00,
  0x12, 0xfe, 0xff, 0xff, 0x10, 0x00, 0x00, 0x00, 0x04, 0x00, 0x00, 0x00,
  0x01, 0x00, 0x00, 0x00, 0x1a, 0x00, 0x00, 0x00, 0x02, 0x00, 0x00, 0x00,
  0x19, 0x00, 0x00, 0x00, 0x0f, 0x00, 0x00, 0x00, 0x7e, 0xfe, 0xff, 0xff,
  0x00, 0x00, 0x00, 0x0b, 0x02, 0x00, 0x00, 0x00, 0x1c, 0x00, 0x00, 0x00,
  0x10, 0x00, 0x00, 0x00, 0x04, 0x00, 0x00, 0x00, 0x36, 0xe6, 0xff, 0xff,
  0x00, 0x00, 0x00, 0x01, 0x01, 0x00, 0x00, 0x00, 0x19, 0x00, 0x00, 0x00,
  0x02, 0x00, 0x00, 0x00, 0x18, 0x00, 0x00, 0x00, 0x03, 0x00, 0x00, 0x00,
  0x66, 0xfe, 0xff, 0xff, 0x10, 0x00, 0x00, 0x00, 0x04, 0x00, 0x00, 0x00,
  0x01, 0x00, 0x00, 0x00, 0x18, 0x00, 0x00, 0x00, 0x02, 0x00, 0x00, 0x00,
  0x17, 0x00, 0x00, 0x00, 0x0e, 0x00, 0x00, 0x00, 0xd2, 0xfe, 0xff, 0xff,
  0x00, 0x00, 0x00, 0x01, 0x01, 0x00, 0x00, 0x00, 0x20, 0x00, 0x00, 0x00,
  0x14, 0x00, 0x00, 0x00, 0x04, 0x00, 0x00, 0x00, 0x9e, 0xfe, 0xff, 0xff,
  0x01, 0x00, 0x00, 0x00, 0x01, 0x00, 0x00, 0x00, 0x01, 0x00, 0x00, 0x00,
  0x17, 0x00, 0x00, 0x00, 0x03, 0x00, 0x00, 0x00, 0x16, 0x00, 0x00, 0x00,
  0x09, 0x00, 0x00, 0x00, 0x08, 0x00, 0x00, 0x00, 0xc2, 0xfe, 0xff, 0xff,
  0x10, 0x00, 0x00, 0x00, 0x04, 0x00, 0x00, 0x00, 0x01, 0x00, 0x00, 0x00,
  0x16, 0x00, 0x00, 0x00, 0x02, 0x00, 0x00, 0x00, 0x15, 0x00, 0x00, 0x00,
  0x0d, 0x00, 0x00, 0x00, 0x00, 0x00, 0x0e, 0x00, 0x1a, 0x00, 0x08, 0x00,
  0x0c, 0x00, 0x10, 0x00, 0x07, 0x00, 0x14, 0x00, 0x0e, 0x00, 0x00, 0x00,
  0x00, 0x00, 0x00, 0x05, 0x03, 0x00, 0x00, 0x00, 0x38, 0x00, 0x00, 0x00,
  0x2c, 0x00, 0x00, 0x00, 0x14, 0x00, 0x00, 0x00, 0x00, 0x00, 0x0e, 0x00,
  0x14, 0x00, 0x00, 0x00, 0x04, 0x00, 0x08, 0x00, 0x0c, 0x00, 0x10, 0x00,
  0x0e, 0x00, 0x00, 0x00, 0x01, 0x00, 0x00, 0x00, 0x02, 0x00, 0x00, 0x00,
  0x01, 0x00, 0x00, 0x00, 0x02, 0x00, 0x00, 0x00, 0x01, 0x00, 0x00, 0x00,
  0x15, 0x00, 0x00, 0x00, 0x01, 0x00, 0x00, 0x00, 0x14, 0x00, 0x00, 0x00,
  0x3e, 0xff, 0xff, 0xff, 0x10, 0x00, 0x00, 0x00, 0x04, 0x00, 0x00, 0x00,
  0x01, 0x00, 0x00, 0x00, 0x14, 0x00, 0x00, 0x00, 0x02, 0x00, 0x00, 0x00,
  0x13, 0x00, 0x00, 0x00, 0x0c, 0x00, 0x00, 0x00, 0xaa, 0xff, 0xff, 0xff,
  0x00, 0x00, 0x00, 0x0b, 0x02, 0x00, 0x00, 0x00, 0x1c, 0x00, 0x00, 0x00,
  0x10, 0x00, 0x00, 0x00, 0x04, 0x00, 0x00, 0x00, 0x62, 0xe7, 0xff, 0xff,
  0x00, 0x00, 0x00, 0x01, 0x01, 0x00, 0x00, 0x00, 0x13, 0x00, 0x00, 0x00,
  0x02, 0x00, 0x00, 0x00, 0x12, 0x00, 0x00, 0x00, 0x02, 0x00, 0x00, 0x00,
  0x92, 0xff, 0xff, 0xff, 0x10, 0x00, 0x00, 0x00, 0x04, 0x00, 0x00, 0x00,
  0x01, 0x00, 0x00, 0x00, 0x12, 0x00, 0x00, 0x00, 0x02, 0x00, 0x00, 0x00,
  0x11, 0x00, 0x00, 0x00, 0x0b, 0x00, 0x00, 0x00, 0x00, 0x00, 0x0e, 0x00,
  0x18, 0x00, 0x08, 0x00, 0x0c, 0x00, 0x10, 0x00, 0x07, 0x00, 0x14, 0x00,
  0x0e, 0x00, 0x00, 0x00, 0x00, 0x00, 0x00, 0x01, 0x01, 0x00, 0x00, 0x00,
  0x20, 0x00, 0x00, 0x00, 0x14, 0x00, 0x00, 0x00, 0x04, 0x00, 0x00, 0x00,
  0xda, 0xff, 0xff, 0xff, 0x01, 0x00, 0x00, 0x00, 0x01, 0x00, 0x00, 0x00,
  0x01, 0x00, 0x00, 0x00, 0x11, 0x00, 0x00, 0x00, 0x03, 0x00, 0x00, 0x00,
  0x10, 0x00, 0x00, 0x00, 0x07, 0x00, 0x00, 0x00, 0x06, 0x00, 0x00, 0x00,
  0x00, 0x00, 0x0a, 0x00, 0x0c, 0x00, 0x00, 0x00, 0x04, 0x00, 0x08, 0x00,
  0x0a, 0x00, 0x00, 0x00, 0x10, 0x00, 0x00, 0x00, 0x04, 0x00, 0x00, 0x00,
  0x01, 0x00, 0x00, 0x00, 0x10, 0x00, 0x00, 0x00, 0x02, 0x00, 0x00, 0x00,
  0x00, 0x00, 0x00, 0x00, 0x0a, 0x00, 0x00, 0x00, 0x01, 0x00, 0x00, 0x00,
  0x1e, 0x00, 0x00, 0x00, 0x01, 0x00, 0x00, 0x00, 0x00, 0x00, 0x00, 0x00,
  0x1f, 0x00, 0x00, 0x00, 0xe0, 0x16, 0x00, 0x00, 0x54, 0x16, 0x00, 0x00,
  0xe4, 0x15, 0x00, 0x00, 0x78, 0x15, 0x00, 0x00, 0x18, 0x15, 0x00, 0x00,
  0x68, 0x14, 0x00, 0x00, 0x7c, 0x13, 0x00, 0x00, 0x38, 0x12, 0x00, 0x00,
  0xec, 0x10, 0x00, 0x00, 0x00, 0x0f, 0x00, 0x00, 0x74, 0x0e, 0x00, 0x00,
  0xec, 0x0d, 0x00, 0x00, 0x60, 0x0d, 0x00, 0x00, 0xd0, 0x0c, 0x00, 0x00,
  0x44, 0x0c, 0x00, 0x00, 0xb4, 0x0b, 0x00, 0x00, 0xe4, 0x0a, 0x00, 0x00,
  0x28, 0x0a, 0x00, 0x00, 0x64, 0x09, 0x00, 0x00, 0x68, 0x08, 0x00, 0x00,
  0x94, 0x07, 0x00, 0x00, 0xc8, 0x06, 0x00, 0x00, 0xf4, 0x05, 0x00, 0x00,
  0x38, 0x05, 0x00, 0x00, 0x6c, 0x04, 0x00, 0x00, 0x68, 0x03, 0x00, 0x00,
  0x94, 0x02, 0x00, 0x00, 0xc8, 0x01, 0x00, 0x00, 0x14, 0x01, 0x00, 0x00,
  0x60, 0x00, 0x00, 0x00, 0x04, 0x00, 0x00, 0x00, 0xaa, 0xe9, 0xff, 0xff,
  0x00, 0x00, 0x00, 0x09, 0x44, 0x00, 0x00, 0x00, 0x1f, 0x00, 0x00, 0x00,
  0x2c, 0x00, 0x00, 0x00, 0x04, 0x00, 0x00, 0x00, 0x54, 0xeb, 0xff, 0xff,
  0x18, 0x00, 0x00, 0x00, 0x04, 0x00, 0x00, 0x00, 0x01, 0x00, 0x00, 0x00,
  0x80, 0xff, 0xff, 0xff, 0xff, 0xff, 0xff, 0xff, 0x00, 0x00, 0x00, 0x00,
  0x01, 0x00, 0x00, 0x00, 0x00, 0x00, 0x80, 0x3b, 0x08, 0x00, 0x00, 0x00,
  0x49, 0x64, 0x65, 0x6e, 0x74, 0x69, 0x74, 0x79, 0x00, 0x00, 0x00, 0x00,
  0x02, 0x00, 0x00, 0x00, 0x01, 0x00, 0x00, 0x00, 0x04, 0x00, 0x00, 0x00,
  0x02, 0xea, 0xff, 0xff, 0x00, 0x00, 0x00, 0x09, 0x9c, 0x00, 0x00, 0x00,
  0x1e, 0x00, 0x00, 0x00, 0x44, 0x00, 0x00, 0x00, 0x04, 0x00, 0x00, 0x00,
  0xf4, 0xe9, 0xff, 0xff, 0x30, 0x00, 0x00, 0x00, 0x24, 0x00, 0x00, 0x00,
  0x18, 0x00, 0x00, 0x00, 0x04, 0x00, 0x00, 0x00, 0x01, 0x00, 0x00, 0x00,
  0x3a, 0x00, 0x00, 0x00, 0x00, 0x00, 0x00, 0x00, 0x00, 0x00, 0x00, 0x00,
  0x01, 0x00, 0x00, 0x00, 0xdb, 0x5b, 0xa6, 0x3f, 0x01, 0x00, 0x00, 0x00,
  0x3f, 0x61, 0xb2, 0x42, 0x01, 0x00, 0x00, 0x00, 0x5f, 0x3a, 0x72, 0xc3,
  0x4b, 0x00, 0x00, 0x00, 0x73, 0x65, 0x71, 0x75, 0x65, 0x6e, 0x74, 0x69,
  0x61, 0x6c, 0x2f, 0x79, 0x5f, 0x70, 0x72, 0x65, 0x64, 0x2f, 0x42, 0x69,
  0x61, 0x73, 0x41, 0x64, 0x64, 0x3b, 0x53, 0x74, 0x61, 0x74, 0x65, 0x66,
  0x75, 0x6c, 0x50, 0x61, 0x72, 0x74, 0x69, 0x74, 0x69, 0x6f, 0x6e, 0x65,
  0x64, 0x43, 0x61, 0x6c, 0x6c, 0x2f, 0x73, 0x65, 0x71, 0x75, 0x65, 0x6e,
  0x74, 0x69, 0x61, 0x6c, 0x2f, 0x79, 0x5f, 0x70, 0x72, 0x65, 0x64, 0x2f,
  0x42, 0x69, 0x61, 0x73, 0x41, 0x64, 0x64, 0x00, 0x02, 0x00, 0x00, 0x00,
  0x01, 0x00, 0x00, 0x00, 0x04, 0x00, 0x00, 0x00, 0xb2, 0xea, 0xff, 0xff,
  0x00, 0x00, 0x00, 0x09, 0x9c, 0x00, 0x00, 0x00, 0x1d, 0x00, 0x00, 0x00,
  0x40, 0x00, 0x00, 0x00, 0x04, 0x00, 0x00, 0x00, 0xa4, 0xea, 0xff, 0xff,
  0x2c, 0x00, 0x00, 0x00, 0x20, 0x00, 0x00, 0x00, 0x14, 0x00, 0x00, 0x00,
  0x04, 0x00, 0x00, 0x00, 0x01, 0x00, 0x00, 0x00, 0x80, 0xff, 0xff, 0xff,
  0xff, 0xff, 0xff, 0xff, 0x01, 0x00, 0x00, 0x00, 0x24, 0x99, 0xe4, 0x3c,
  0x01, 0x00, 0x00, 0x00, 0x8b, 0xb4, 0xe3, 0x40, 0x01, 0x00, 0x00, 0x00,
  0x00, 0x00, 0x00, 0x00, 0x4d, 0x00, 0x00, 0x00, 0x73, 0x65, 0x71, 0x75,
  0x65, 0x6e, 0x74, 0x69, 0x61, 0x6c, 0x2f, 0x66, 0x6c, 0x61, 0x74, 0x74,
  0x65, 0x6e, 0x2f, 0x52, 0x65, 0x73, 0x68, 0x61, 0x70, 0x65, 0x3b, 0x53,
  0x74, 0x61, 0x74, 0x65, 0x66, 0x75, 0x6c, 0x50, 0x61, 0x72, 0x74, 0x69,
  0x74, 0x69, 0x6f, 0x6e, 0x65, 0x64, 0x43, 0x61, 0x6c, 0x6c, 0x2f, 0x73,
  0x65, 0x71, 0x75, 0x65, 0x6e, 0x74, 0x69, 0x61, 0x6c, 0x2f, 0x66, 0x6c,
  0x61, 0x74, 0x74, 0x65, 0x6e, 0x2f, 0x52, 0x65, 0x73, 0x68, 0x61, 0x70,
  0x65, 0x00, 0x00, 0x00, 0x02, 0x00, 0x00, 0x00, 0x01, 0x00, 0x00, 0x00,
  0x60, 0x02, 0x00, 0x00, 0x62, 0xeb, 0xff, 0xff, 0x00, 0x00, 0x00, 0x09,
  0xac, 0x00, 0x00, 0x00, 0x1c, 0x00, 0x00, 0x00, 0x40, 0x00, 0x00, 0x00,
  0x04, 0x00, 0x00, 0x00, 0x54, 0xeb, 0xff, 0xff, 0x2c, 0x00, 0x00, 0x00,
  0x20, 0x00, 0x00, 0x00, 0x14, 0x00, 0x00, 0x00, 0x04, 0x00, 0x00, 0x00,
  0x01, 0x00, 0x00, 0x00, 0x80, 0xff, 0xff, 0xff, 0xff, 0xff, 0xff, 0xff,
  0x01, 0x00, 0x00, 0x00, 0x24, 0x99, 0xe4, 0x3c, 0x01, 0x00, 0x00, 0x00,
  0x8b, 0xb4, 0xe3, 0x40, 0x01, 0x00, 0x00, 0x00, 0x00, 0x00, 0x00, 0x00,
  0x5d, 0x00, 0x00, 0x00, 0x73, 0x65, 0x71, 0x75, 0x65, 0x6e, 0x74, 0x69,
  0x61, 0x6c, 0x2f, 0x6d, 0x61, 0x78, 0x5f, 0x70, 0x6f, 0x6f, 0x6c, 0x69,
  0x6e, 0x67, 0x31, 0x64, 0x5f, 0x31, 0x2f, 0x4d, 0x61, 0x78, 0x50, 0x6f,
  0x6f, 0x6c, 0x3b, 0x53, 0x74, 0x61, 0x74, 0x65, 0x66, 0x75, 0x6c, 0x50,
  0x61, 0x72, 0x74, 0x69, 0x74, 0x69, 0x6f, 0x6e, 0x65, 0x64, 0x43, 0x61,
  0x6c, 0x6c, 0x2f, 0x73, 0x65, 0x71, 0x75, 0x65, 0x6e, 0x74, 0x69, 0x61,
  0x6c, 0x2f, 0x6d, 0x61, 0x78, 0x5f, 0x70, 0x6f, 0x6f, 0x6c, 0x69, 0x6e,
  0x67, 0x31, 0x64, 0x5f, 0x31, 0x2f, 0x4d, 0x61, 0x78, 0x50, 0x6f, 0x6f,
  0x6c, 0x00, 0x00, 0x00, 0x04, 0x00, 0x00, 0x00, 0x01, 0x00, 0x00, 0x00,
  0x26, 0x00, 0x00, 0x00, 0x01, 0x00, 0x00, 0x00, 0x10, 0x00, 0x00, 0x00,
  0x2a, 0xec, 0xff, 0xff, 0x00, 0x00, 0x00, 0x09, 0xb4, 0x00, 0x00, 0x00,
  0x1b, 0x00, 0x00, 0x00, 0x40, 0x00, 0x00, 0x00, 0x04, 0x00, 0x00, 0x00,
  0x1c, 0xec, 0xff, 0xff, 0x2c, 0x00, 0x00, 0x00, 0x20, 0x00, 0x00, 0x00,
  0x14, 0x00, 0x00, 0x00, 0x04, 0x00, 0x00, 0x00, 0x01, 0x00, 0x00, 0x00,
  0x80, 0xff, 0xff, 0xff, 0xff, 0xff, 0xff, 0xff, 0x01, 0x00, 0x00, 0x00,
  0x24, 0x99, 0xe4, 0x3c, 0x01, 0x00, 0x00, 0x00, 0x8b, 0xb4, 0xe3, 0x40,
  0x01, 0x00, 0x00, 0x00, 0x00, 0x00, 0x00, 0x00, 0x64, 0x00, 0x00, 0x00,
  0x73, 0x65, 0x71, 0x75, 0x65, 0x6e, 0x74, 0x69, 0x61, 0x6c, 0x2f, 0x6d,
  0x61, 0x78, 0x5f, 0x70, 0x6f, 0x6f, 0x6c, 0x69, 0x6e, 0x67, 0x31, 0x64,
  0x5f, 0x31, 0x2f, 0x45, 0x78, 0x70, 0x61, 0x6e, 0x64, 0x44, 0x69, 0x6d,
  0x73, 0x3b, 0x53, 0x74, 0x61, 0x74, 0x65, 0x66, 0x75, 0x6c, 0x50, 0x61,
  0x72, 0x74, 0x69, 0x74, 0x69, 0x6f, 0x6e, 0x65, 0x64, 0x43, 0x61, 0x6c,
  0x6c, 0x2f, 0x73, 0x65, 0x71, 0x75, 0x65, 0x6e, 0x74, 0x69, 0x61, 0x6c,
  0x2f, 0x6d, 0x61, 0x78, 0x5f, 0x70, 0x6f, 0x6f, 0x6c, 0x69, 0x6e, 0x67,
  0x31, 0x64, 0x5f, 0x31, 0x2f, 0x45, 0x78, 0x70, 0x61, 0x6e, 0x64, 0x44,
  0x69, 0x6d, 0x73, 0x31, 0x00, 0x00, 0x00, 0x00, 0x04, 0x00, 0x00, 0x00,
  0x01, 0x00, 0x00, 0x00, 0x4b, 0x00, 0x00, 0x00, 0x01, 0x00, 0x00, 0x00,
  0x10, 0x00, 0x00, 0x00, 0xfa, 0xec, 0xff, 0xff, 0x00, 0x00, 0x00, 0x09,
  0xe8, 0x00, 0x00, 0x00, 0x1a, 0x00, 0x00, 0x00, 0x40, 0x00, 0x00, 0x00,
  0x04, 0x00, 0x00, 0x00, 0xec, 0xec, 0xff, 0xff, 0x2c, 0x00, 0x00, 0x00,
  0x20, 0x00, 0x00, 0x00, 0x14, 0x00, 0x00, 0x00, 0x04, 0x00, 0x00, 0x00,
  0x01, 0x00, 0x00, 0x00, 0x80, 0xff, 0xff, 0xff, 0xff, 0xff, 0xff, 0xff,
  0x01, 0x00, 0x00, 0x00, 0x24, 0x99, 0xe4, 0x3c, 0x01, 0x00, 0x00, 0x00,
  0x8b, 0xb4, 0xe3, 0x40, 0x01, 0x00, 0x00, 0x00, 0x00, 0x00, 0x00, 0x00,
  0x99, 0x00, 0x00, 0x00, 0x73, 0x65, 0x71, 0x75, 0x65, 0x6e, 0x74, 0x69,
  0x61, 0x6c, 0x2f, 0x63, 0x6f, 0x6e, 0x76, 0x31, 0x64, 0x5f, 0x31, 0x2f,
  0x52, 0x65, 0x6c, 0x75, 0x3b, 0x53, 0x74, 0x61, 0x74, 0x65, 0x66, 0x75,
  0x6c, 0x50, 0x61, 0x72, 0x74, 0x69, 0x74, 0x69, 0x6f, 0x6e, 0x65, 0x64,
  0x43, 0x61, 0x6c, 0x6c, 0x2f, 0x73, 0x65, 0x71, 0x75, 0x65, 0x6e, 0x74,
  0x69, 0x61, 0x6c, 0x2f, 0x63, 0x6f, 0x6e, 0x76, 0x31, 0x64, 0x5f, 0x31,
  0x2f, 0x52, 0x65, 0x6c, 0x75, 0x3b, 0x73, 0x65, 0x71, 0x75, 0x65, 0x6e,
  0x74, 0x69, 0x61, 0x6c, 0x2f, 0x63, 0x6f, 0x6e, 0x76, 0x31, 0x64, 0x5f,
  0x31, 0x2f, 0x42, 0x69, 0x61, 0x73, 0x41, 0x64, 0x64, 0x3b, 0x53, 0x74,
  0x61, 0x74, 0x65, 0x66, 0x75, 0x6c, 0x50, 0x61, 0x72, 0x74, 0x69, 0x74,
  0x69, 0x6f, 0x6e, 0x65, 0x64, 0x43, 0x61, 0x6c, 0x6c, 0x2f, 0x73, 0x65,
  0x71, 0x75, 0x65, 0x6e, 0x74, 0x69, 0x61, 0x6c, 0x2f, 0x63, 0x6f, 0x6e,
  0x76, 0x31, 0x64, 0x5f, 0x31, 0x2f, 0x42, 0x69, 0x61, 0x73, 0x41, 0x64,
  0x64, 0x00, 0x00, 0x00, 0x03, 0x00, 0x00, 0x00, 0x01, 0x00, 0x00, 0x00,
  0x4b, 0x00, 0x00, 0x00, 0x10, 0x00, 0x00, 0x00, 0xfa, 0xed, 0xff, 0xff,
  0x00, 0x00, 0x00, 0x09, 0xb0, 0x00, 0x00, 0x00, 0x19, 0x00, 0x00, 0x00,
  0x44, 0x00, 0x00, 0x00, 0x04, 0x00, 0x00, 0x00, 0xec, 0xed, 0xff, 0xff,
  0x30, 0x00, 0x00, 0x00, 0x24, 0x00, 0x00, 0x00, 0x18, 0x00, 0x00, 0x00,
  0x04, 0x00, 0x00, 0x00, 0x01, 0x00, 0x00, 0x00, 0x04, 0x00, 0x00, 0x00,
  0x00, 0x00, 0x00, 0x00, 0x00, 0x00, 0x00, 0x00, 0x01, 0x00, 0x00, 0x00,
  0x94, 0xc9, 0x6d, 0x3d, 0x01, 0x00, 0x00, 0x00, 0x3f, 0x29, 0xe4, 0x40,
  0x01, 0x00, 0x00, 0x00, 0x54, 0x8e, 0xf5, 0xc0, 0x5e, 0x00, 0x00, 0x00,
  0x73, 0x65, 0x71, 0x75, 0x65, 0x6e, 0x74, 0x69, 0x61, 0x6c, 0x2f, 0x63,
  0x6f, 0x6e, 0x76, 0x31, 0x64, 0x5f, 0x31, 0x2f, 0x63, 0x6f, 0x6e, 0x76,
  0x31, 0x64, 0x2f, 0x53, 0x71, 0x75, 0x65, 0x65, 0x7a, 0x65, 0x3b, 0x53,
  0x74, 0x61, 0x74, 0x65, 0x66, 0x75, 0x6c, 0x50, 0x61, 0x72, 0x74, 0x69,
  0x74, 0x69, 0x6f, 0x6e, 0x65, 0x64, 0x43, 0x61, 0x6c, 0x6c, 0x2f, 0x73,
  0x65, 0x71, 0x75, 0x65, 0x6e, 0x74, 0x69, 0x61, 0x6c, 0x2f, 0x63, 0x6f,
  0x6e, 0x76, 0x31, 0x64, 0x5f, 0x31, 0x2f, 0x63, 0x6f, 0x6e, 0x76, 0x31,
  0x64, 0x2f, 0x53, 0x71, 0x75, 0x65, 0x65, 0x7a, 0x65, 0x31, 0x00, 0x00,
  0x03, 0x00, 0x00, 0x00, 0x01, 0x00, 0x00, 0x00, 0x4b, 0x00, 0x00, 0x00,
  0x10, 0x00, 0x00, 0x00, 0xc2, 0xee, 0xff, 0xff, 0x00, 0x00, 0x00, 0x09,
  0x9c, 0x00, 0x00, 0x00, 0x18, 0x00, 0x00, 0x00, 0x40, 0x00, 0x00, 0x00,
  0x04, 0x00, 0x00, 0x00, 0xb4, 0xee, 0xff, 0xff, 0x2c, 0x00, 0x00, 0x00,
  0x20, 0x00, 0x00, 0x00, 0x14, 0x00, 0x00, 0x00, 0x04, 0x00, 0x00, 0x00,
  0x01, 0x00, 0x00, 0x00, 0x04, 0x00, 0x00, 0x00, 0x00, 0x00, 0x00, 0x00,
  0x01, 0x00, 0x00, 0x00, 0x94, 0xc9, 0x6d, 0x3d, 0x01, 0x00, 0x00, 0x00,
  0x3f, 0x29, 0xe4, 0x40, 0x01, 0x00, 0x00, 0x00, 0x54, 0x8e, 0xf5, 0xc0,
  0x4e, 0x00, 0x00, 0x00, 0x73, 0x65, 0x71, 0x75, 0x65, 0x6e, 0x74, 0x69,
  0x61, 0x6c, 0x2f, 0x63, 0x6f, 0x6e, 0x76, 0x31, 0x64, 0x5f, 0x31, 0x2f,
  0x63, 0x6f, 0x6e, 0x76, 0x31, 0x64, 0x3b, 0x53, 0x74, 0x61, 0x74, 0x65,
  0x66, 0x75, 0x6c, 0x50, 0x61, 0x72, 0x74, 0x69, 0x74, 0x69, 0x6f, 0x6e,
  0x65, 0x64, 0x43, 0x61, 0x6c, 0x6c, 0x2f, 0x73, 0x65, 0x71, 0x75, 0x65,
  0x6e, 0x74, 0x69, 0x61, 0x6c, 0x2f, 0x63, 0x6f, 0x6e, 0x76, 0x31, 0x64,
  0x5f, 0x31, 0x2f, 0x63, 0x6f, 0x6e, 0x76, 0x31, 0x64, 0x32, 0x00, 0x00,
  0x04, 0x00, 0x00, 0x00, 0x01, 0x00, 0x00, 0x00, 0x01, 0x00, 0x00, 0x00,
  0x4b, 0x00, 0x00, 0x00, 0x10, 0x00, 0x00, 0x00, 0x7a, 0xef, 0xff, 0xff,
  0x00, 0x00, 0x00, 0x09, 0xb4, 0x00, 0x00, 0x00, 0x17, 0x00, 0x00, 0x00,
  0x40, 0x00, 0x00, 0x00, 0x04, 0x00, 0x00, 0x00, 0x6c, 0xef, 0xff, 0xff,
  0x2c, 0x00, 0x00, 0x00, 0x20, 0x00, 0x00, 0x00, 0x14, 0x00, 0x00, 0x00,
  0x04, 0x00, 0x00, 0x00, 0x01, 0x00, 0x00, 0x00, 0x80, 0xff, 0xff, 0xff,
  0xff, 0xff, 0xff, 0xff, 0x01, 0x00, 0x00, 0x00, 0x47, 0xcc, 0x1d, 0x3c,
  0x01, 0x00, 0x00, 0x00, 0x7b, 0x2e, 0x1d, 0x40, 0x01, 0x00, 0x00, 0x00,
  0x00, 0x00, 0x00, 0x00, 0x64, 0x00, 0x00, 0x00, 0x73, 0x65, 0x71, 0x75,
  0x65, 0x6e, 0x74, 0x69, 0x61, 0x6c, 0x2f, 0x63, 0x6f, 0x6e, 0x76, 0x31,
  0x64, 0x5f, 0x31, 0x2f, 0x63, 0x6f, 0x6e, 0x76, 0x31, 0x64, 0x2f, 0x45,
  0x78, 0x70, 0x61, 0x6e, 0x64, 0x44, 0x69, 0x6d, 0x73, 0x3b, 0x53, 0x74,
  0x61, 0x74, 0x65, 0x66, 0x75, 0x6c, 0x50, 0x61, 0x72, 0x74, 0x69, 0x74,
  0x69, 0x6f, 0x6e, 0x65, 0x64, 0x43, 0x61, 0x6c, 0x6c, 0x2f, 0x73, 0x65,
  0x71, 0x75, 0x65, 0x6e, 0x74, 0x69, 0x61, 0x6c, 0x2f, 0x63, 0x6f, 0x6e,
  0x76, 0x31, 0x64, 0x5f, 0x31, 0x2f, 0x63, 0x6f, 0x6e, 0x76, 0x31, 0x64,
  0x2f, 0x45, 0x78, 0x70, 0x61, 0x6e, 0x64, 0x44, 0x69, 0x6d, 0x73, 0x31,
  0x00, 0x00, 0x00, 0x00, 0x04, 0x00, 0x00, 0x00, 0x01, 0x00, 0x00, 0x00,
  0x01, 0x00, 0x00, 0x00, 0x4b, 0x00, 0x00, 0x00, 0x08, 0x00, 0x00, 0x00,
  0x4a, 0xf0, 0xff, 0xff, 0x00, 0x00, 0x00, 0x09, 0xac, 0x00, 0x00, 0x00,
  0x16, 0x00, 0x00, 0x00, 0x44, 0x00, 0x00, 0x00, 0x04, 0x00, 0x00, 0x00,
  0x3c, 0xf0, 0xff, 0xff, 0x30, 0x00, 0x00, 0x00, 0x24, 0x00, 0x00, 0x00,
  0x18, 0x00, 0x00, 0x00, 0x04, 0x00, 0x00, 0x00, 0x01, 0x00, 0x00, 0x00,
  0x80, 0xff, 0xff, 0xff, 0xff, 0xff, 0xff, 0xff, 0x00, 0x00, 0x00, 0x00,
  0x01, 0x00, 0x00, 0x00, 0x47, 0xcc, 0x1d, 0x3c, 0x01, 0x00, 0x00, 0x00,
  0x7b, 0x2e, 0x1d, 0x40, 0x01, 0x00, 0x00, 0x00, 0x00, 0x00, 0x00, 0x00,
  0x59, 0x00, 0x00, 0x00, 0x73, 0x65, 0x71, 0x75, 0x65, 0x6e, 0x74, 0x69,
  0x61, 0x6c, 0x2f, 0x6d, 0x61, 0x78, 0x5f, 0x70, 0x6f, 0x6f, 0x6c, 0x69,
  0x6e, 0x67, 0x31, 0x64, 0x2f, 0x4d, 0x61, 0x78, 0x50, 0x6f, 0x6f, 0x6c,
  0x3b, 0x53, 0x74, 0x61, 0x74, 0x65, 0x66, 0x75, 0x6c, 0x50, 0x61, 0x72,
  0x74, 0x69, 0x74, 0x69, 0x6f, 0x6e, 0x65, 0x64, 0x43, 0x61, 0x6c, 0x6c,
  0x2f, 0x73, 0x65, 0x71, 0x75, 0x65, 0x6e, 0x74, 0x69, 0x61, 0x6c, 0x2f,
  0x6d, 0x61, 0x78, 0x5f, 0x70, 0x6f, 0x6f, 0x6c, 0x69, 0x6e, 0x67, 0x31,
  0x64, 0x2f, 0x4d, 0x61, 0x78, 0x50, 0x6f, 0x6f, 0x6c, 0x00, 0x00, 0x00,
  0x04, 0x00, 0x00, 0x00, 0x01, 0x00, 0x00, 0x00, 0x4b, 0x00, 0x00, 0x00,
  0x01, 0x00, 0x00, 0x00, 0x08, 0x00, 0x00, 0x00, 0x12, 0xf1, 0xff, 0xff,
  0x00, 0x00, 0x00, 0x09, 0xb4, 0x00, 0x00, 0x00, 0x15, 0x00, 0x00, 0x00,
  0x44, 0x00, 0x00, 0x00, 0x04, 0x00, 0x00, 0x00, 0x04, 0xf1, 0xff, 0xff,
  0x30, 0x00, 0x00, 0x00, 0x24, 0x00, 0x00, 0x00, 0x18, 0x00, 0x00, 0x00,
  0x04, 0x00, 0x00, 0x00, 0x01, 0x00, 0x00, 0x00, 0x80, 0xff, 0xff, 0xff,
  0xff, 0xff, 0xff, 0xff, 0x00, 0x00, 0x00, 0x00, 0x01, 0x00, 0x00, 0x00,
  0x47, 0xcc, 0x1d, 0x3c, 0x01, 0x00, 0x00, 0x00, 0x7b, 0x2e, 0x1d, 0x40,
  0x01, 0x00, 0x00, 0x00, 0x00, 0x00, 0x00, 0x00, 0x60, 0x00, 0x00, 0x00,
  0x73, 0x65, 0x71, 0x75, 0x65, 0x6e, 0x74, 0x69, 0x61, 0x6c, 0x2f, 0x6d,
  0x61, 0x78, 0x5f, 0x70, 0x6f, 0x6f, 0x6c, 0x69, 0x6e, 0x67, 0x31, 0x64,
  0x2f, 0x45, 0x78, 0x70, 0x61, 0x6e, 0x64, 0x44, 0x69, 0x6d, 0x73, 0x3b,
  0x53, 0x74, 0x61, 0x74, 0x65, 0x66, 0x75, 0x6c, 0x50, 0x61, 0x72, 0x74,
  0x69, 0x74, 0x69, 0x6f, 0x6e, 0x65, 0x64, 0x43, 0x61, 0x6c, 0x6c, 0x2f,
  0x73, 0x65, 0x71, 0x75, 0x65, 0x6e, 0x74, 0x69, 0x61, 0x6c, 0x2f, 0x6d,
  0x61, 0x78, 0x5f, 0x70, 0x6f, 0x6f, 0x6c, 0x69, 0x6e, 0x67, 0x31, 0x64,
  0x2f, 0x45, 0x78, 0x70, 0x61, 0x6e, 0x64, 0x44, 0x69, 0x6d, 0x73, 0x31,
  0x00, 0x00, 0x00, 0x00, 0x04, 0x00, 0x00, 0x00, 0x01, 0x00, 0x00, 0x00,
  0x95, 0x00, 0x00, 0x00, 0x01, 0x00, 0x00, 0x00, 0x08, 0x00, 0x00, 0x00,
  0xe2, 0xf1, 0xff, 0xff, 0x00, 0x00, 0x00, 0x09, 0xe0, 0x00, 0x00, 0x00,
  0x14, 0x00, 0x00, 0x00, 0x40, 0x00, 0x00, 0x00, 0x04, 0x00, 0x00, 0x00,
  0xd4, 0xf1, 0xff, 0xff, 0x2c, 0x00, 0x00, 0x00, 0x20, 0x00, 0x00, 0x00,
  0x14, 0x00, 0x00, 0x00, 0x04, 0x00, 0x00, 0x00, 0x01, 0x00, 0x00, 0x00,
  0x80, 0xff, 0xff, 0xff, 0xff, 0xff, 0xff, 0xff, 0x01, 0x00, 0x00, 0x00,
  0x47, 0xcc, 0x1d, 0x3c, 0x01, 0x00, 0x00, 0x00, 0x7b, 0x2e, 0x1d, 0x40,
  0x01, 0x00, 0x00, 0x00, 0x00, 0x00, 0x00, 0x00, 0x91, 0x00, 0x00, 0x00,
  0x73, 0x65, 0x71, 0x75, 0x65, 0x6e, 0x74, 0x69, 0x61, 0x6c, 0x2f, 0x63,
  0x6f, 0x6e, 0x76, 0x31, 0x64, 0x2f, 0x52, 0x65, 0x6c, 0x75, 0x3b, 0x53,
  0x74, 0x61, 0x74, 0x65, 0x66, 0x75, 0x6c, 0x50, 0x61, 0x72, 0x74, 0x69,
  0x74, 0x69, 0x6f, 0x6e, 0x65, 0x64, 0x43, 0x61, 0x6c, 0x6c, 0x2f, 0x73,
  0x65, 0x71, 0x75, 0x65, 0x6e, 0x74, 0x69, 0x61, 0x6c, 0x2f, 0x63, 0x6f,
  0x6e, 0x76, 0x31, 0x64, 0x2f, 0x52, 0x65, 0x6c, 0x75, 0x3b, 0x73, 0x65,
  0x71, 0x75, 0x65, 0x6e, 0x74, 0x69, 0x61, 0x6c, 0x2f, 0x63, 0x6f, 0x6e,
  0x76, 0x31, 0x64, 0x2f, 0x42, 0x69, 0x61, 0x73, 0x41, 0x64, 0x64, 0x3b,
  0x53, 0x74, 0x61, 0x74, 0x65, 0x66, 0x75, 0x6c, 0x50, 0x61, 0x72, 0x74,
  0x69, 0x74, 0x69, 0x6f, 0x6e, 0x65, 0x64, 0x43, 0x61, 0x6c, 0x6c, 0x2f,
  0x73, 0x65, 0x71, 0x75, 0x65, 0x6e, 0x74, 0x69, 0x61, 0x6c, 0x2f, 0x63,
  0x6f, 0x6e, 0x76, 0x31, 0x64, 0x2f, 0x42, 0x69, 0x61, 0x73, 0x41, 0x64,
  0x64, 0x00, 0x00, 0x00, 0x03, 0x00, 0x00, 0x00, 0x01, 0x00, 0x00, 0x00,
  0x95, 0x00, 0x00, 0x00, 0x08, 0x00, 0x00, 0x00, 0xda, 0xf2, 0xff, 0xff,
  0x00, 0x00, 0x00, 0x09, 0xa8, 0x00, 0x00, 0x00, 0x13, 0x00, 0x00, 0x00,
  0x40, 0x00, 0x00, 0x00, 0x04, 0x00, 0x00, 0x00, 0xcc, 0xf2, 0xff, 0xff,
  0x2c, 0x00, 0x00, 0x00, 0x20, 0x00, 0x00, 0x00, 0x14, 0x00, 0x00, 0x00,
  0x04, 0x00, 0x00, 0x00, 0x01, 0x00, 0x00, 0x00, 0xf0, 0xff, 0xff, 0xff,
  0xff, 0xff, 0xff, 0xff, 0x01, 0x00, 0x00, 0x00, 0x9b, 0x72, 0x8a, 0x3c,
  0x01, 0x00, 0x00, 0x00, 0x51, 0x9f, 0x1a, 0x40, 0x01, 0x00, 0x00, 0x00,
  0xfc, 0x61, 0xf2, 0xbf, 0x5a, 0x00, 0x00, 0x00, 0x73, 0x65, 0x71, 0x75,
  0x65, 0x6e, 0x74, 0x69, 0x61, 0x6c, 0x2f, 0x63, 0x6f, 0x6e, 0x76, 0x31,
  0x64, 0x2f, 0x63, 0x6f, 0x6e, 0x76, 0x31, 0x64, 0x2f, 0x53, 0x71, 0x75,
  0x65, 0x65, 0x7a, 0x65, 0x3b, 0x53, 0x74, 0x61, 0x74, 0x65, 0x66, 0x75,
  0x6c, 0x50, 0x61, 0x72, 0x74, 0x69, 0x74, 0x69, 0x6f, 0x6e, 0x65, 0x64,
  0x43, 0x61, 0x6c, 0x6c, 0x2f, 0x73, 0x65, 0x71, 0x75, 0x65, 0x6e, 0x74,
  0x69, 0x61, 0x6c, 0x2f, 0x63, 0x6f, 0x6e, 0x76, 0x31, 0x64, 0x2f, 0x63,
  0x6f, 0x6e, 0x76, 0x31, 0x64, 0x2f, 0x53, 0x71, 0x75, 0x65, 0x65, 0x7a,
  0x65, 0x31, 0x00, 0x00, 0x03, 0x00, 0x00, 0x00, 0x01, 0x00, 0x00, 0x00,
  0x95, 0x00, 0x00, 0x00, 0x08, 0x00, 0x00, 0x00, 0x9a, 0xf3, 0xff, 0xff,
  0x00, 0x00, 0x00, 0x09, 0x9c, 0x00, 0x00, 0x00, 0x12, 0x00, 0x00, 0x00,
  0x44, 0x00, 0x00, 0x00, 0x04, 0x00, 0x00, 0x00, 0x8c, 0xf3, 0xff, 0xff,
  0x30, 0x00, 0x00, 0x00, 0x24, 0x00, 0x00, 0x00, 0x18, 0x00, 0x00, 0x00,
  0x04, 0x00, 0x00, 0x00, 0x01, 0x00, 0x00, 0x00, 0xf0, 0xff, 0xff, 0xff,
  0xff, 0xff, 0xff, 0xff, 0x00, 0x00, 0x00, 0x00, 0x01, 0x00, 0x00, 0x00,
  0x9b, 0x72, 0x8a, 0x3c, 0x01, 0x00, 0x00, 0x00, 0x51, 0x9f, 0x1a, 0x40,
  0x01, 0x00, 0x00, 0x00, 0xfc, 0x61, 0xf2, 0xbf, 0x4a, 0x00, 0x00, 0x00,
  0x73, 0x65, 0x71, 0x75, 0x65, 0x6e, 0x74, 0x69, 0x61, 0x6c, 0x2f, 0x63,
  0x6f, 0x6e, 0x76, 0x31, 0x64, 0x2f, 0x63, 0x6f, 0x6e, 0x76, 0x31, 0x64,
  0x3b, 0x53, 0x74, 0x61, 0x74, 0x65, 0x66, 0x75, 0x6c, 0x50, 0x61, 0x72,
  0x74, 0x69, 0x74, 0x69, 0x6f, 0x6e, 0x65, 0x64, 0x43, 0x61, 0x6c, 0x6c,
  0x2f, 0x73, 0x65, 0x71, 0x75, 0x65, 0x6e, 0x74, 0x69, 0x61, 0x6c, 0x2f,
  0x63, 0x6f, 0x6e, 0x76, 0x31, 0x64, 0x2f, 0x63, 0x6f, 0x6e, 0x76, 0x31,
  0x64, 0x32, 0x00, 0x00, 0x04, 0x00, 0x00, 0x00, 0x01, 0x00, 0x00, 0x00,
  0x01, 0x00, 0x00, 0x00, 0x95, 0x00, 0x00, 0x00, 0x08, 0x00, 0x00, 0x00,
  0x52, 0xf4, 0xff, 0xff, 0x00, 0x00, 0x00, 0x09, 0xb0, 0x00, 0x00, 0x00,
  0x11, 0x00, 0x00, 0x00, 0x40, 0x00, 0x00, 0x00, 0x04, 0x00, 0x00, 0x00,
  0x44, 0xf4, 0xff, 0xff, 0x2c, 0x00, 0x00, 0x00, 0x20, 0x00, 0x00, 0x00,
  0x14, 0x00, 0x00, 0x00, 0x04, 0x00, 0x00, 0x00, 0x01, 0x00, 0x00, 0x00,
  0x80, 0xff, 0xff, 0xff, 0xff, 0xff, 0xff, 0xff, 0x01, 0x00, 0x00, 0x00,
  0x81, 0x80, 0x80, 0x3b, 0x01, 0x00, 0x00, 0x00, 0x00, 0x00, 0x80, 0x3f,
  0x01, 0x00, 0x00, 0x00, 0x00, 0x00, 0x00, 0x00, 0x60, 0x00, 0x00, 0x00,
  0x73, 0x65, 0x71, 0x75, 0x65, 0x6e, 0x74, 0x69, 0x61, 0x6c, 0x2f, 0x63,
  0x6f, 0x6e, 0x76, 0x31, 0x64, 0x2f, 0x63, 0x6f, 0x6e, 0x76, 0x31, 0x64,
  0x2f, 0x45, 0x78, 0x70, 0x61, 0x6e, 0x64, 0x44, 0x69, 0x6d, 0x73, 0x3b,
  0x53, 0x74, 0x61, 0x74, 0x65, 0x66, 0x75, 0x6c, 0x50, 0x61, 0x72, 0x74,
  0x69, 0x74, 0x69, 0x6f, 0x6e, 0x65, 0x64, 0x43, 0x61, 0x6c, 0x6c, 0x2f,
  0x73, 0x65, 0x71, 0x75, 0x65, 0x6e, 0x74, 0x69, 0x61, 0x6c, 0x2f, 0x63,
  0x6f, 0x6e, 0x76, 0x31, 0x64, 0x2f, 0x63, 0x6f, 0x6e, 0x76, 0x31, 0x64,
  0x2f, 0x45, 0x78, 0x70, 0x61, 0x6e, 0x64, 0x44, 0x69, 0x6d, 0x73, 0x31,
  0x00, 0x00, 0x00, 0x00, 0x04, 0x00, 0x00, 0x00, 0x01, 0x00, 0x00, 0x00,
  0x01, 0x00, 0x00, 0x00, 0x95, 0x00, 0x00, 0x00, 0x41, 0x00, 0x00, 0x00,
  0x1e, 0xf5, 0xff, 0xff, 0x00, 0x00, 0x00, 0x02, 0x7c, 0x00, 0x00, 0x00,
  0x10, 0x00, 0x00, 0x00, 0x0c, 0x00, 0x00, 0x00, 0x04, 0x00, 0x00, 0x00,
  0x98, 0xf5, 0xff, 0xff, 0x63, 0x00, 0x00, 0x00, 0x73, 0x65, 0x71, 0x75,
  0x65, 0x6e, 0x74, 0x69, 0x61, 0x6c, 0x2f, 0x6d, 0x61, 0x78, 0x5f, 0x70,
  0x6f, 0x6f, 0x6c, 0x69, 0x6e, 0x67, 0x31, 0x64, 0x5f, 0x31, 0x2f, 0x45,
  0x78, 0x70, 0x61, 0x6e, 0x64, 0x44, 0x69, 0x6d, 0x73, 0x3b, 0x53, 0x74,
  0x61, 0x74, 0x65, 0x66, 0x75, 0x6c, 0x50, 0x61, 0x72, 0x74, 0x69, 0x74,
  0x69, 0x6f, 0x6e, 0x65, 0x64, 0x43, 0x61, 0x6c, 0x6c, 0x2f, 0x73, 0x65,
  0x71, 0x75, 0x65, 0x6e, 0x74, 0x69, 0x61, 0x6c, 0x2f, 0x6d, 0x61, 0x78,
  0x5f, 0x70, 0x6f, 0x6f, 0x6c, 0x69, 0x6e, 0x67, 0x31, 0x64, 0x5f, 0x31,
  0x2f, 0x45, 0x78, 0x70, 0x61, 0x6e, 0x64, 0x44, 0x69, 0x6d, 0x73, 0x00,
  0x01, 0x00, 0x00, 0x00, 0x04, 0x00, 0x00, 0x00, 0xaa, 0xf5, 0xff, 0xff,
  0x00, 0x00, 0x00, 0x02, 0x78, 0x00, 0x00, 0x00, 0x0f, 0x00, 0x00, 0x00,
  0x0c, 0x00, 0x00, 0x00, 0x04, 0x00, 0x00, 0x00, 0x24, 0xf6, 0xff, 0xff,
  0x5d, 0x00, 0x00, 0x00, 0x73, 0x65, 0x71, 0x75, 0x65, 0x6e, 0x74, 0x69,
  0x61, 0x6c, 0x2f, 0x63, 0x6f, 0x6e, 0x76, 0x31, 0x64, 0x5f, 0x31, 0x2f,
  0x63, 0x6f, 0x6e, 0x76, 0x31, 0x64, 0x2f, 0x53, 0x71, 0x75, 0x65, 0x65,
  0x7a, 0x65, 0x3b, 0x53, 0x74, 0x61, 0x74, 0x65, 0x66, 0x75, 0x6c, 0x50,
  0x61, 0x72, 0x74, 0x69, 0x74, 0x69, 0x6f, 0x6e, 0x65, 0x64, 0x43, 0x61,
  0x6c, 0x6c, 0x2f, 0x73, 0x65, 0x71, 0x75, 0x65, 0x6e, 0x74, 0x69, 0x61,
  0x6c, 0x2f, 0x63, 0x6f, 0x6e, 0x76, 0x31, 0x64, 0x5f, 0x31, 0x2f, 0x63,
  0x6f, 0x6e, 0x76, 0x31, 0x64, 0x2f, 0x53, 0x71, 0x75, 0x65, 0x65, 0x7a,
  0x65, 0x00, 0x00, 0x00, 0x01, 0x00, 0x00, 0x00, 0x03, 0x00, 0x00, 0x00,
  0x32, 0xf6, 0xff, 0xff, 0x00, 0x00, 0x00, 0x02, 0x7c, 0x00, 0x00, 0x00,
  0x0e, 0x00, 0x00, 0x00, 0x0c, 0x00, 0x00, 0x00, 0x04, 0x00, 0x00, 0x00,
  0xac, 0xf6, 0xff, 0xff, 0x63, 0x00, 0x00, 0x00, 0x73, 0x65, 0x71, 0x75,
  0x65, 0x6e, 0x74, 0x69, 0x61, 0x6c, 0x2f, 0x63, 0x6f, 0x6e, 0x76, 0x31,
  0x64, 0x5f, 0x31, 0x2f, 0x63, 0x6f, 0x6e, 0x76, 0x31, 0x64, 0x2f, 0x45,
  0x78, 0x70, 0x61, 0x6e, 0x64, 0x44, 0x69, 0x6d, 0x73, 0x3b, 0x53, 0x74,
  0x61, 0x74, 0x65, 0x66, 0x75, 0x6c, 0x50, 0x61, 0x72, 0x74, 0x69, 0x74,
  0x69, 0x6f, 0x6e, 0x65, 0x64, 0x43, 0x61, 0x6c, 0x6c, 0x2f, 0x73, 0x65,
  0x71, 0x75, 0x65, 0x6e, 0x74, 0x69, 0x61, 0x6c, 0x2f, 0x63, 0x6f, 0x6e,
  0x76, 0x31, 0x64, 0x5f, 0x31, 0x2f, 0x63, 0x6f, 0x6e, 0x76, 0x31, 0x64,
  0x2f, 0x45, 0x78, 0x70, 0x61, 0x6e, 0x64, 0x44, 0x69, 0x6d, 0x73, 0x00,
  0x01, 0x00, 0x00, 0x00, 0x04, 0x00, 0x00, 0x00, 0xbe, 0xf6, 0xff, 0xff,
  0x00, 0x00, 0x00, 0x02, 0x78, 0x00, 0x00, 0x00, 0x0d, 0x00, 0x00, 0x00,
  0x0c, 0x00, 0x00, 0x00, 0x04, 0x00, 0x00, 0x00, 0x38, 0xf7, 0xff, 0xff,
  0x5f, 0x00, 0x00, 0x00, 0x73, 0x65, 0x71, 0x75, 0x65, 0x6e, 0x74, 0x69,
  0x61, 0x6c, 0x2f, 0x6d, 0x61, 0x78, 0x5f, 0x70, 0x6f, 0x6f, 0x6c, 0x69,
  0x6e, 0x67, 0x31, 0x64, 0x2f, 0x45, 0x78, 0x70, 0x61, 0x6e, 0x64, 0x44,
  0x69, 0x6d, 0x73, 0x3b, 0x53, 0x74, 0x61, 0x74, 0x65, 0x66, 0x75, 0x6c,
  0x50, 0x61, 0x72, 0x74, 0x69, 0x74, 0x69, 0x6f, 0x6e, 0x65, 0x64, 0x43,
  0x61, 0x6c, 0x6c, 0x2f, 0x73, 0x65, 0x71, 0x75, 0x65, 0x6e, 0x74, 0x69,
  0x61, 0x6c, 0x2f, 0x6d, 0x61, 0x78, 0x5f, 0x70, 0x6f, 0x6f, 0x6c, 0x69,
  0x6e, 0x67, 0x31, 0x64, 0x2f, 0x45, 0x78, 0x70, 0x61, 0x6e, 0x64, 0x44,
  0x69, 0x6d, 0x73, 0x00, 0x01, 0x00, 0x00, 0x00, 0x04, 0x00, 0x00, 0x00,
  0x46, 0xf7, 0xff, 0xff, 0x00, 0x00, 0x00, 0x02, 0x74, 0x00, 0x00, 0x00,
  0x0c, 0x00, 0x00, 0x00, 0x0c, 0x00, 0x00, 0x00, 0x04, 0x00, 0x00, 0x00,
  0xc0, 0xf7, 0xff, 0xff, 0x59, 0x00, 0x00, 0x00, 0x73, 0x65, 0x71, 0x75,
  0x65, 0x6e, 0x74, 0x69, 0x61, 0x6c, 0x2f, 0x63, 0x6f, 0x6e, 0x76, 0x31,
  0x64, 0x2f, 0x63, 0x6f, 0x6e, 0x76, 0x31, 0x64, 0x2f, 0x53, 0x71, 0x75,
  0x65, 0x65, 0x7a, 0x65, 0x3b, 0x53, 0x74, 0x61, 0x74, 0x65, 0x66, 0x75,
  0x6c, 0x50, 0x61, 0x72, 0x74, 0x69, 0x74, 0x69, 0x6f, 0x6e, 0x65, 0x64,
  0x43, 0x61, 0x6c, 0x6c, 0x2f, 0x73, 0x65, 0x71, 0x75, 0x65, 0x6e, 0x74,
  0x69, 0x61, 0x6c, 0x2f, 0x63, 0x6f, 0x6e, 0x76, 0x31, 0x64, 0x2f, 0x63,
  0x6f, 0x6e, 0x76, 0x31, 0x64, 0x2f, 0x53, 0x71, 0x75, 0x65, 0x65, 0x7a,
  0x65, 0x00, 0x00, 0x00, 0x01, 0x00, 0x00, 0x00, 0x03, 0x00, 0x00, 0x00,
  0xca, 0xf7, 0xff, 0xff, 0x00, 0x00, 0x00, 0x02, 0x78, 0x00, 0x00, 0x00,
  0x0b, 0x00, 0x00, 0x00, 0x0c, 0x00, 0x00, 0x00, 0x04, 0x00, 0x00, 0x00,
  0x44, 0xf8, 0xff, 0xff, 0x5f, 0x00, 0x00, 0x00, 0x73, 0x65, 0x71, 0x75,
  0x65, 0x6e, 0x74, 0x69, 0x61, 0x6c, 0x2f, 0x63, 0x6f, 0x6e, 0x76, 0x31,
  0x64, 0x2f, 0x63, 0x6f, 0x6e, 0x76, 0x31, 0x64, 0x2f, 0x45, 0x78, 0x70,
  0x61, 0x6e, 0x64, 0x44, 0x69, 0x6d, 0x73, 0x3b, 0x53, 0x74, 0x61, 0x74,
  0x65, 0x66, 0x75, 0x6c, 0x50, 0x61, 0x72, 0x74, 0x69, 0x74, 0x69, 0x6f,
  0x6e, 0x65, 0x64, 0x43, 0x61, 0x6c, 0x6c, 0x2f, 0x73, 0x65, 0x71, 0x75,
  0x65, 0x6e, 0x74, 0x69, 0x61, 0x6c, 0x2f, 0x63, 0x6f, 0x6e, 0x76, 0x31,
  0x64, 0x2f, 0x63, 0x6f, 0x6e, 0x76, 0x31, 0x64, 0x2f, 0x45, 0x78, 0x70,
  0x61, 0x6e, 0x64, 0x44, 0x69, 0x6d, 0x73, 0x00, 0x01, 0x00, 0x00, 0x00,
  0x04, 0x00, 0x00, 0x00, 0x52, 0xf8, 0xff, 0xff, 0x00, 0x00, 0x00, 0x09,
  0xcc, 0x01, 0x00, 0x00, 0x0a, 0x00, 0x00, 0x00, 0x70, 0x01, 0x00, 0x00,
  0x04, 0x00, 0x00, 0x00, 0x44, 0xf8, 0xff, 0xff, 0x20, 0x01, 0x00, 0x00,
  0xd8, 0x00, 0x00, 0x00, 0x90, 0x00, 0x00, 0x00, 0x04, 0x00, 0x00, 0x00,
  0x10, 0x00, 0x00, 0x00, 0x00, 0x00, 0x00, 0x00, 0x00, 0x00, 0x00, 0x00,
  0x00, 0x00, 0x00, 0x00, 0x00, 0x00, 0x00, 0x00, 0x00, 0x00, 0x00, 0x00,
  0x00, 0x00, 0x00, 0x00, 0x00, 0x00, 0x00, 0x00, 0x00, 0x00, 0x00, 0x00,
  0x00, 0x00, 0x00, 0x00, 0x00, 0x00, 0x00, 0x00, 0x00, 0x00, 0x00, 0x00,
  0x00, 0x00, 0x00, 0x00, 0x00, 0x00, 0x00, 0x00, 0x00, 0x00, 0x00, 0x00,
  0x00, 0x00, 0x00, 0x00, 0x00, 0x00, 0x00, 0x00, 0x00, 0x00, 0x00, 0x00,
  0x00, 0x00, 0x00, 0x00, 0x00, 0x00, 0x00, 0x00, 0x00, 0x00, 0x00, 0x00,
  0x00, 0x00, 0x00, 0x00, 0x00, 0x00, 0x00, 0x00, 0x00, 0x00, 0x00, 0x00,
  0x00, 0x00, 0x00, 0x00, 0x00, 0x00, 0x00, 0x00, 0x00, 0x00, 0x00, 0x00,
  0x00, 0x00, 0x00, 0x00, 0x00, 0x00, 0x00, 0x00, 0x00, 0x00, 0x00, 0x00,
  0x00, 0x00, 0x00, 0x00, 0x00, 0x00, 0x00, 0x00, 0x00, 0x00, 0x00, 0x00,
  0x00, 0x00, 0x00, 0x00, 0x10, 0x00, 0x00, 0x00, 0xf1, 0xaa, 0x93, 0x3b,
  0x7e, 0xc3, 0xe5, 0x3b, 0xfe, 0xa1, 0x9a, 0x3b, 0xea, 0xbc, 0xb3, 0x3b,
  0x0d, 0xa5, 0xdd, 0x3b, 0x6a, 0xd1, 0xaf, 0x3b, 0x71, 0xab, 0xae, 0x3b,
  0xc5, 0xe9, 0xa1, 0x3b, 0xe1, 0x99, 0x22, 0x3c, 0x21, 0x7d, 0x0b, 0x3c,
  0xce, 0xfe, 0xc3, 0x3b, 0x4f, 0xa1, 0x3e, 0x3b, 0xc1, 0x42, 0xa9, 0x3b,
  0xa4, 0xb9, 0xcc, 0x3b, 0xe5, 0x88, 0x88, 0x3b, 0xae, 0x43, 0x75, 0x3b,
  0x10, 0x00, 0x00, 0x00, 0x9b, 0x83, 0x12, 0x3f, 0x8c, 0xa2, 0x56, 0x3f,
  0x8b, 0x50, 0x09, 0x3f, 0x70, 0x55, 0x32, 0x3f, 0xc3, 0xe9, 0x5b, 0x3f,
  0xc7, 0x71, 0x2e, 0x3f, 0x1a, 0x4e, 0x2d, 0x3f, 0xf1, 0xa5, 0x20, 0x3f,
  0xe0, 0x23, 0x34, 0x3f, 0x2b, 0xfd, 0xf0, 0x3e, 0xd0, 0x76, 0x42, 0x3f,
  0x0c, 0x24, 0xbd, 0x3e, 0x3b, 0xf0, 0x27, 0x3f, 0x31, 0x20, 0x4b, 0x3f,
  0xd3, 0x77, 0x07, 0x3f, 0x27, 0x59, 0xf3, 0x3e, 0x10, 0x00, 0x00, 0x00,
  0x81, 0xd9, 0xb2, 0xbe, 0xf7, 0xf7, 0x63, 0xbf, 0xba, 0x6c, 0x19, 0xbf,
  0xcb, 0xca, 0x9d, 0xbe, 0xea, 0xaf, 0x54, 0xbf, 0x07, 0x1b, 0xe4, 0xbe,
  0x25, 0xbe, 0xe7, 0xbe, 0x7c, 0x21, 0x0a, 0xbf, 0xad, 0x54, 0xa1, 0xbf,
  0x27, 0x66, 0x8a, 0xbf, 0x77, 0x51, 0x0f, 0xbf, 0xb2, 0x01, 0x9b, 0xbe,
  0xee, 0x6a, 0xee, 0xbe, 0xeb, 0x76, 0x39, 0xbf, 0x6a, 0xd3, 0xdc, 0xbe,
  0x3a, 0x50, 0x73, 0xbe, 0x4e, 0x00, 0x00, 0x00, 0x73, 0x65, 0x71, 0x75,
  0x65, 0x6e, 0x74, 0x69, 0x61, 0x6c, 0x2f, 0x63, 0x6f, 0x6e, 0x76, 0x31,
  0x64, 0x5f, 0x31, 0x2f, 0x63, 0x6f, 0x6e, 0x76, 0x31, 0x64, 0x3b, 0x53,
  0x74, 0x61, 0x74, 0x65, 0x66, 0x75, 0x6c, 0x50, 0x61, 0x72, 0x74, 0x69,
  0x74, 0x69, 0x6f, 0x6e, 0x65, 0x64, 0x43, 0x61, 0x6c, 0x6c, 0x2f, 0x73,
  0x65, 0x71, 0x75, 0x65, 0x6e, 0x74, 0x69, 0x61, 0x6c, 0x2f, 0x63, 0x6f,
  0x6e, 0x76, 0x31, 0x64, 0x5f, 0x31, 0x2f, 0x63, 0x6f, 0x6e, 0x76, 0x31,
  0x64, 0x31, 0x00, 0x00, 0x04, 0x00, 0x00, 0x00, 0x10, 0x00, 0x00, 0x00,
  0x01, 0x00, 0x00, 0x00, 0x03, 0x00, 0x00, 0x00, 0x08, 0x00, 0x00, 0x00,
  0x3a, 0xfa, 0xff, 0xff, 0x00, 0x00, 0x00, 0x02, 0x38, 0x01, 0x00, 0x00,
  0x09, 0x00, 0x00, 0x00, 0xdc, 0x00, 0x00, 0x00, 0x04, 0x00, 0x00, 0x00,
  0xe4, 0xfb, 0xff, 0xff, 0x8c, 0x00, 0x00, 0x00, 0x04, 0x00, 0x00, 0x00,
  0x10, 0x00, 0x00, 0x00, 0x00, 0x00, 0x00, 0x00, 0x00, 0x00, 0x00, 0x00,
  0x00, 0x00, 0x00, 0x00, 0x00, 0x00, 0x00, 0x00, 0x00, 0x00, 0x00, 0x00,
  0x00, 0x00, 0x00, 0x00, 0x00, 0x00, 0x00, 0x00, 0x00, 0x00, 0x00, 0x00,
  0x00, 0x00, 0x00, 0x00, 0x00, 0x00, 0x00, 0x00, 0x00, 0x00, 0x00, 0x00,
  0x00, 0x00, 0x00, 0x00, 0x00, 0x00, 0x00, 0x00, 0x00, 0x00, 0x00, 0x00,
  0x00, 0x00, 0x00, 0x00, 0x00, 0x00, 0x00, 0x00, 0x00, 0x00, 0x00, 0x00,
  0x00, 0x00, 0x00, 0x00, 0x00, 0x00, 0x00, 0x00, 0x00, 0x00, 0x00, 0x00,
  0x00, 0x00, 0x00, 0x00, 0x00, 0x00, 0x00, 0x00, 0x00, 0x00, 0x00, 0x00,
  0x00, 0x00, 0x00, 0x00, 0x00, 0x00, 0x00, 0x00, 0x00, 0x00, 0x00, 0x00,
  0x00, 0x00, 0x00, 0x00, 0x00, 0x00, 0x00, 0x00, 0x00, 0x00, 0x00, 0x00,
  0x00, 0x00, 0x00, 0x00, 0x00, 0x00, 0x00, 0x00, 0x00, 0x00, 0x00, 0x00,
  0x10, 0x00, 0x00, 0x00, 0x56, 0x0b, 0x36, 0x38, 0x3c, 0xa0, 0x8d, 0x38,
  0x79, 0xa1, 0x3e, 0x38, 0x90, 0x94, 0x5d, 0x38, 0x16, 0x9f, 0x88, 0x38,
  0x73, 0xbf, 0x58, 0x38, 0x0b, 0x55, 0x57, 0x38, 0x22, 0x9b, 0x47, 0x38,
  0x3d, 0x74, 0xc8, 0x38, 0x17, 0xf6, 0xab, 0x38, 0x53, 0x9f, 0x71, 0x38,
  0x16, 0x02, 0xeb, 0x37, 0x01, 0xaa, 0x50, 0x38, 0x6d, 0x62, 0x7c, 0x38,
  0xcf, 0x51, 0x28, 0x38, 0x38, 0x2e, 0x17, 0x38, 0x4d, 0x00, 0x00, 0x00,
  0x73, 0x65, 0x71, 0x75, 0x65, 0x6e, 0x74, 0x69, 0x61, 0x6c, 0x2f, 0x63,
  0x6f, 0x6e, 0x76, 0x31, 0x64, 0x5f, 0x31, 0x2f, 0x63, 0x6f, 0x6e, 0x76,
  0x31, 0x64, 0x3b, 0x53, 0x74, 0x61, 0x74, 0x65, 0x66, 0x75, 0x6c, 0x50,
  0x61, 0x72, 0x74, 0x69, 0x74, 0x69, 0x6f, 0x6e, 0x65, 0x64, 0x43, 0x61,
  0x6c, 0x6c, 0x2f, 0x73, 0x65, 0x71, 0x75, 0x65, 0x6e, 0x74, 0x69, 0x61,
  0x6c, 0x2f, 0x63, 0x6f, 0x6e, 0x76, 0x31, 0x64, 0x5f, 0x31, 0x2f, 0x63,
  0x6f, 0x6e, 0x76, 0x31, 0x64, 0x00, 0x00, 0x00, 0x01, 0x00, 0x00, 0x00,
  0x10, 0x00, 0x00, 0x00, 0x82, 0xfb, 0xff, 0xff, 0x00, 0x00, 0x00, 0x09,
  0x24, 0x01, 0x00, 0x00, 0x08, 0x00, 0x00, 0x00, 0xcc, 0x00, 0x00, 0x00,
  0x04, 0x00, 0x00, 0x00, 0x74, 0xfb, 0xff, 0xff, 0x9c, 0x00, 0x00, 0x00,
  0x74, 0x00, 0x00, 0x00, 0x4c, 0x00, 0x00, 0x00, 0x04, 0x00, 0x00, 0x00,
  0x08, 0x00, 0x00, 0x00, 0x00, 0x00, 0x00, 0x00, 0x00, 0x00, 0x00, 0x00,
  0x00, 0x00, 0x00, 0x00, 0x00, 0x00, 0x00, 0x00, 0x00, 0x00, 0x00, 0x00,
  0x00, 0x00, 0x00, 0x00, 0x00, 0x00, 0x00, 0x00, 0x00, 0x00, 0x00, 0x00,
  0x00, 0x00, 0x00, 0x00, 0x00, 0x00, 0x00, 0x00, 0x00, 0x00, 0x00, 0x00,
  0x00, 0x00, 0x00, 0x00, 0x00, 0x00, 0x00, 0x00, 0x00, 0x00, 0x00, 0x00,
  0x00, 0x00, 0x00, 0x00, 0x00, 0x00, 0x00, 0x00, 0x08, 0x00, 0x00, 0x00,
  0x26, 0x24, 0x0b, 0x3c, 0x3d, 0xad, 0xcc, 0x3b, 0x0e, 0x55, 0xf6, 0x3b,
  0xb2, 0x9c, 0xea, 0x3b, 0x13, 0xdb, 0x3c, 0x3c, 0xaf, 0x58, 0xf6, 0x3b,
  0x65, 0xc2, 0x91, 0x3c, 0xa0, 0x53, 0xfa, 0x3b, 0x08, 0x00, 0x00, 0x00,
  0x55, 0x43, 0x23, 0x3f, 0xe3, 0x13, 0x4b, 0x3f, 0x64, 0x68, 0x74, 0x3f,
  0x79, 0xc7, 0x68, 0x3f, 0x5d, 0x61, 0xbb, 0x3f, 0xfe, 0x6b, 0x74, 0x3f,
  0xf1, 0xb6, 0x44, 0x3f, 0xf9, 0x5e, 0x78, 0x3f, 0x08, 0x00, 0x00, 0x00,
  0xde, 0x0d, 0x8a, 0xbf, 0x5e, 0x18, 0x2d, 0xbf, 0xd3, 0xd9, 0x04, 0xbf,
  0x4a, 0x8b, 0x05, 0xbf, 0xf2, 0x41, 0x05, 0xbf, 0x19, 0x85, 0xb2, 0xbe,
  0xe0, 0x9e, 0x10, 0xc0, 0x4e, 0x66, 0x18, 0xbf, 0x4a, 0x00, 0x00, 0x00,
  0x73, 0x65, 0x71, 0x75, 0x65, 0x6e, 0x74, 0x69, 0x61, 0x6c, 0x2f, 0x63,
  0x6f, 0x6e, 0x76, 0x31, 0x64, 0x2f, 0x63, 0x6f, 0x6e, 0x76, 0x31, 0x64,
  0x3b, 0x53, 0x74, 0x61, 0x74, 0x65, 0x66, 0x75, 0x6c, 0x50, 0x61, 0x72,
  0x74, 0x69, 0x74, 0x69, 0x6f, 0x6e, 0x65, 0x64, 0x43, 0x61, 0x6c, 0x6c,
  0x2f, 0x73, 0x65, 0x71, 0x75, 0x65, 0x6e, 0x74, 0x69, 0x61, 0x6c, 0x2f,
  0x63, 0x6f, 0x6e, 0x76, 0x31, 0x64, 0x2f, 0x63, 0x6f, 0x6e, 0x76, 0x31,
  0x64, 0x31, 0x00, 0x00, 0x04, 0x00, 0x00, 0x00, 0x08, 0x00, 0x00, 0x00,
  0x01, 0x00, 0x00, 0x00, 0x03, 0x00, 0x00, 0x00, 0x41, 0x00, 0x00, 0x00,
  0xc2, 0xfc, 0xff, 0xff, 0x00, 0x00, 0x00, 0x02, 0xd8, 0x00, 0x00, 0x00,
  0x07, 0x00, 0x00, 0x00, 0x80, 0x00, 0x00, 0x00, 0x04, 0x00, 0x00, 0x00,
  0x6c, 0xfe, 0xff, 0xff, 0x50, 0x00, 0x00, 0x00, 0x04, 0x00, 0x00, 0x00,
  0x08, 0x00, 0x00, 0x00, 0x00, 0x00, 0x00, 0x00, 0x00, 0x00, 0x00, 0x00,
  0x00, 0x00, 0x00, 0x00, 0x00, 0x00, 0x00, 0x00, 0x00, 0x00, 0x00, 0x00,
  0x00, 0x00, 0x00, 0x00, 0x00, 0x00, 0x00, 0x00, 0x00, 0x00, 0x00, 0x00,
  0x00, 0x00, 0x00, 0x00, 0x00, 0x00, 0x00, 0x00, 0x00, 0x00, 0x00, 0x00,
  0x00, 0x00, 0x00, 0x00, 0x00, 0x00, 0x00, 0x00, 0x00, 0x00, 0x00, 0x00,
  0x00, 0x00, 0x00, 0x00, 0x00, 0x00, 0x00, 0x00, 0x00, 0x00, 0x00, 0x00,
  0x08, 0x00, 0x00, 0x00, 0xd6, 0xaf, 0x0b, 0x38, 0xb9, 0x7a, 0xcd, 0x37,
  0x5b, 0x4c, 0xf7, 0x37, 0x3b, 0x88, 0xeb, 0x37, 0xac, 0x98, 0x3d, 0x38,
  0x00, 0x50, 0xf7, 0x37, 0xba, 0x54, 0x92, 0x38, 0xf0, 0x4e, 0xfb, 0x37,
  0x49, 0x00, 0x00, 0x00, 0x73, 0x65, 0x71, 0x75, 0x65, 0x6e, 0x74, 0x69,
  0x61, 0x6c, 0x2f, 0x63, 0x6f, 0x6e, 0x76, 0x31, 0x64, 0x2f, 0x63, 0x6f,
  0x6e, 0x76, 0x31, 0x64, 0x3b, 0x53, 0x74, 0x61, 0x74, 0x65, 0x66, 0x75,
  0x6c, 0x50, 0x61, 0x72, 0x74, 0x69, 0x74, 0x69, 0x6f, 0x6e, 0x65, 0x64,
  0x43, 0x61, 0x6c, 0x6c, 0x2f, 0x73, 0x65, 0x71, 0x75, 0x65, 0x6e, 0x74,
  0x69, 0x61, 0x6c, 0x2f, 0x63, 0x6f, 0x6e, 0x76, 0x31, 0x64, 0x2f, 0x63,
  0x6f, 0x6e, 0x76, 0x31, 0x64, 0x00, 0x00, 0x00, 0x01, 0x00, 0x00, 0x00,
  0x08, 0x00, 0x00, 0x00, 0xaa, 0xfd, 0xff, 0xff, 0x00, 0x00, 0x00, 0x09,
  0x98, 0x00, 0x00, 0x00, 0x06, 0x00, 0x00, 0x00, 0x40, 0x00, 0x00, 0x00,
  0x04, 0x00, 0x00, 0x00, 0x9c, 0xfd, 0xff, 0xff, 0x2c, 0x00, 0x00, 0x00,
  0x20, 0x00, 0x00, 0x00, 0x14, 0x00, 0x00, 0x00, 0x04, 0x00, 0x00, 0x00,
  0x01, 0x00, 0x00, 0x00, 0x00, 0x00, 0x00, 0x00, 0x00, 0x00, 0x00, 0x00,
  0x01, 0x00, 0x00, 0x00, 0xf4, 0xb6, 0x1b, 0x3c, 0x01, 0x00, 0x00, 0x00,
  0x67, 0xda, 0x46, 0x3f, 0x01, 0x00, 0x00, 0x00, 0x86, 0x7f, 0x9a, 0xbf,
  0x49, 0x00, 0x00, 0x00, 0x73, 0x65, 0x71, 0x75, 0x65, 0x6e, 0x74, 0x69,
  0x61, 0x6c, 0x2f, 0x79, 0x5f, 0x70, 0x72, 0x65, 0x64, 0x2f, 0x4d, 0x61,
  0x74, 0x4d, 0x75, 0x6c, 0x3b, 0x53, 0x74, 0x61, 0x74, 0x65, 0x66, 0x75,
  0x6c, 0x50, 0x61, 0x72, 0x74, 0x69, 0x74, 0x69, 0x6f, 0x6e, 0x65, 0x64,
  0x43, 0x61, 0x6c, 0x6c, 0x2f, 0x73, 0x65, 0x71, 0x75, 0x65, 0x6e, 0x74,
  0x69, 0x61, 0x6c, 0x2f, 0x79, 0x5f, 0x70, 0x72, 0x65, 0x64, 0x2f, 0x4d,
  0x61, 0x74, 0x4d, 0x75, 0x6c, 0x00, 0x00, 0x00, 0x02, 0x00, 0x00, 0x00,
  0x04, 0x00, 0x00, 0x00, 0x60, 0x02, 0x00, 0x00, 0x56, 0xfe, 0xff, 0xff,
  0x00, 0x00, 0x00, 0x02, 0x4c, 0x00, 0x00, 0x00, 0x05, 0x00, 0x00, 0x00,
  0x34, 0x00, 0x00, 0x00, 0x10, 0x00, 0x00, 0x00, 0x0c, 0x00, 0x0c, 0x00,
  0x00, 0x00, 0x00, 0x00, 0x04, 0x00, 0x08, 0x00, 0x0c, 0x00, 0x00, 0x00,
  0x14, 0x00, 0x00, 0x00, 0x04, 0x00, 0x00, 0x00, 0x01, 0x00, 0x00, 0x00,
  0x00, 0x00, 0x00, 0x00, 0x00, 0x00, 0x00, 0x00, 0x01, 0x00, 0x00, 0x00,
  0x18, 0x0c, 0x8b, 0x39, 0x09, 0x00, 0x00, 0x00, 0x75, 0x6e, 0x6b, 0x6e,
  0x6f, 0x77, 0x6e, 0x5f, 0x34, 0x00, 0x00, 0x00, 0x01, 0x00, 0x00, 0x00,
  0x04, 0x00, 0x00, 0x00, 0xb2, 0xfe, 0xff, 0xff, 0x00, 0x00, 0x00, 0x09,
  0x58, 0x00, 0x00, 0x00, 0x04, 0x00, 0x00, 0x00, 0x40, 0x00, 0x00, 0x00,
  0x04, 0x00, 0x00, 0x00, 0xa4, 0xfe, 0xff, 0xff, 0x2c, 0x00, 0x00, 0x00,
  0x20, 0x00, 0x00, 0x00, 0x14, 0x00, 0x00, 0x00, 0x04, 0x00, 0x00, 0x00,
  0x01, 0x00, 0x00, 0x00, 0x00, 0x00, 0x00, 0x00, 0x00, 0x00, 0x00, 0x00,
  0x01, 0x00, 0x00, 0x00, 0x11, 0x8c, 0xee, 0x3a, 0x01, 0x00, 0x00, 0x00,
  0xf9, 0xae, 0x6c, 0x3e, 0x01, 0x00, 0x00, 0x00, 0x35, 0x25, 0x1c, 0xbe,
  0x09, 0x00, 0x00, 0x00, 0x75, 0x6e, 0x6b, 0x6e, 0x6f, 0x77, 0x6e, 0x5f,
  0x32, 0x00, 0x00, 0x00, 0x01, 0x00, 0x00, 0x00, 0x10, 0x00, 0x00, 0x00,
  0x1a, 0xff, 0xff, 0xff, 0x00, 0x00, 0x00, 0x09, 0x5c, 0x00, 0x00, 0x00,
  0x03, 0x00, 0x00, 0x00, 0x44, 0x00, 0x00, 0x00, 0x04, 0x00, 0x00, 0x00,
  0x0c, 0xff, 0xff, 0xff, 0x30, 0x00, 0x00, 0x00, 0x24, 0x00, 0x00, 0x00,
  0x18, 0x00, 0x00, 0x00, 0x04, 0x00, 0x00, 0x00, 0x01, 0x00, 0x00, 0x00,
  0x00, 0x00, 0x00, 0x00, 0x00, 0x00, 0x00, 0x00, 0x00, 0x00, 0x00, 0x00,
  0x01, 0x00, 0x00, 0x00, 0xc8, 0x50, 0x87, 0x3a, 0x01, 0x00, 0x00, 0x00,
  0x26, 0x42, 0x06, 0x3e, 0x01, 0x00, 0x00, 0x00, 0x5d, 0x4d, 0x27, 0xbd,
  0x09, 0x00, 0x00, 0x00, 0x75, 0x6e, 0x6b, 0x6e, 0x6f, 0x77, 0x6e, 0x5f,
  0x30, 0x00, 0x00, 0x00, 0x01, 0x00, 0x00, 0x00, 0x08, 0x00, 0x00, 0x00,
  0x86, 0xff, 0xff, 0xff, 0x00, 0x00, 0x00, 0x02, 0x68, 0x00, 0x00, 0x00,
  0x02, 0x00, 0x00, 0x00, 0x10, 0x00, 0x00, 0x00, 0x08, 0x00, 0x00, 0x00,
  0x04, 0x00, 0x04, 0x00, 0x04, 0x00, 0x00, 0x00, 0x49, 0x00, 0x00, 0x00,
  0x73, 0x65, 0x71, 0x75, 0x65, 0x6e, 0x74, 0x69, 0x61, 0x6c, 0x2f, 0x66,
  0x6c, 0x61, 0x74, 0x74, 0x65, 0x6e, 0x2f, 0x43, 0x6f, 0x6e, 0x73, 0x74,
  0x3b, 0x53, 0x74, 0x61, 0x74, 0x65, 0x66, 0x75, 0x6c, 0x50, 0x61, 0x72,
  0x74, 0x69, 0x74, 0x69, 0x6f, 0x6e, 0x65, 0x64, 0x43, 0x61, 0x6c, 0x6c,
  0x2f, 0x73, 0x65, 0x71, 0x75, 0x65, 0x6e, 0x74, 0x69, 0x61, 0x6c, 0x2f,
  0x66, 0x6c, 0x61, 0x74, 0x74, 0x65, 0x6e, 0x2f, 0x43, 0x6f, 0x6e, 0x73,
  0x74, 0x00, 0x00, 0x00, 0x01, 0x00, 0x00, 0x00, 0x02, 0x00, 0x00, 0x00,
  0x00, 0x00, 0x0e, 0x00, 0x18, 0x00, 0x08, 0x00, 0x07, 0x00, 0x0c, 0x00,
  0x10, 0x00, 0x14, 0x00, 0x0e, 0x00, 0x00, 0x00, 0x00, 0x00, 0x00, 0x09,
  0x68, 0x00, 0x00, 0x00, 0x01, 0x00, 0x00, 0x00, 0x4c, 0x00, 0x00, 0x00,
  0x10, 0x00, 0x00, 0x00, 0x0c, 0x00, 0x14, 0x00, 0x04, 0x00, 0x08, 0x00,
  0x0c, 0x00, 0x10, 0x00, 0x0c, 0x00, 0x00, 0x00, 0x2c, 0x00, 0x00, 0x00,
  0x20, 0x00, 0x00, 0x00, 0x14, 0x00, 0x00, 0x00, 0x04, 0x00, 0x00, 0x00,
  0x01, 0x00, 0x00, 0x00, 0x80, 0xff, 0xff, 0xff, 0xff, 0xff, 0xff, 0xff,
  0x01, 0x00, 0x00, 0x00, 0x81, 0x80, 0x80, 0x3b, 0x01, 0x00, 0x00, 0x00,
  0x00, 0x00, 0x80, 0x3f, 0x01, 0x00, 0x00, 0x00, 0x00, 0x00, 0x00, 0x00,
  0x0d, 0x00, 0x00, 0x00, 0x72, 0x65, 0x73, 0x68, 0x61, 0x70, 0x65, 0x5f,
  0x69, 0x6e, 0x70, 0x75, 0x74, 0x00, 0x00, 0x00, 0x02, 0x00, 0x00, 0x00,
  0x01, 0x00, 0x00, 0x00, 0xd5, 0x25, 0x00, 0x00, 0x06, 0x00, 0x00, 0x00,
  0x7c, 0x00, 0x00, 0x00, 0x64, 0x00, 0x00, 0x00, 0x4c, 0x00, 0x00, 0x00,
  0x30, 0x00, 0x00, 0x00, 0x20, 0x00, 0x00, 0x00, 0x04, 0x00, 0x00, 0x00,
  0xba, 0xff, 0xff, 0xff, 0x00, 0x00, 0x00, 0x19, 0x02, 0x00, 0x00, 0x00,
  0x00, 0x00, 0x0a, 0x00, 0x0c, 0x00, 0x07, 0x00, 0x00, 0x00, 0x08, 0x00,
  0x0a, 0x00, 0x00, 0x00, 0x00, 0x00, 0x00, 0x09, 0x04, 0x00, 0x00, 0x00,
  0xde, 0xff, 0xff, 0xff, 0x00, 0x00, 0x00, 0x11, 0x02, 0x00, 0x00, 0x00,
  0x00, 0x00, 0x0a, 0x00, 0x0a, 0x00, 0x00, 0x00, 0x00, 0x00, 0x04, 0x00,
  0x0a, 0x00, 0x00, 0x00, 0x02, 0x00, 0x00, 0x00, 0x00, 0x00, 0x0a, 0x00,
  0x0e, 0x00, 0x07, 0x00, 0x00, 0x00, 0x08, 0x00, 0x0a, 0x00, 0x00, 0x00,
  0x00, 0x00, 0x00, 0x03, 0x03, 0x00, 0x00, 0x00, 0x00, 0x00, 0x06, 0x00,
  0x08, 0x00, 0x07, 0x00, 0x06, 0x00, 0x00, 0x00, 0x00, 0x00, 0x00, 0x16
};
unsigned int trained_tflite_len = 12432;
